<pad>	0
<unk>	0
<s>	0
</s>	0
▁t	-0
ng	-1
▁c	-2
▁th	-3
▁,	-4
▁n	-5
▁đ	-6
▁.	-7
▁a	-8
▁s	-9
▁l	-10
▁m	-11
▁b	-12
▁h	-13
▁v	-14
▁the	-15
▁w	-16
▁i	-17
re	-18
▁ch	-19
▁o	-20
▁k	-21
▁p	-22
▁nh	-23
nd	-24
▁g	-25
at	-26
▁d	-27
er	-28
▁tr	-29
ou	-30
nh	-31
on	-32
▁kh	-33
▁to	-34
ing	-35
an	-36
en	-37
▁ng	-38
▁là	-39
ôi	-40
es	-41
▁r	-42
▁f	-43
or	-44
al	-45
▁of	-46
▁I	-47
▁T	-48
▁và	-49
▁in	-50
▁and	-51
is	-52
ed	-53
▁ph	-54
ác	-55
ar	-56
ông	-57
ột	-58
it	-59
in	-60
▁tôi	-61
▁y	-62
▁gi	-63
▁một	-64
úng	-65
▁có	-66
▁that	-67
om	-68
ay	-69
ên	-70
as	-71
ic	-72
le	-73
iệ	-74
▁A	-75
ững	-76
ời	-77
ll	-78
▁you	-79
ve	-80
qu	-81
▁"	-82
▁we	-83
▁e	-84
ới	-85
▁những	-86
▁chúng	-87
▁wh	-88
▁củ	-89
▁của	-90
ow	-91
us	-92
▁qu	-93
iế	-94
▁ta	-95
ất	-96
ly	-97
▁is	-98
▁C	-99
ạn	-100
▁be	-101
ut	-102
ong	-103
ion	-104
▁N	-105
ch	-106
▁it	-107
▁các	-108
▁nà	-109
ot	-110
iề	-111
et	-112
▁không	-113
ượ	-114
▁Th	-115
▁V	-116
▁ha	-117
▁nó	-118
ười	-119
▁S	-120
▁đó	-121
▁x	-122
iều	-123
▁re	-124
ent	-125
▁người	-126
ct	-127
▁bạn	-128
ại	-129
▁B	-130
▁on	-131
ld	-132
uy	-133
▁ngh	-134
▁trong	-135
▁thể	-136
▁And	-137
ược	-138
▁?	-139
se	-140
▁này	-141
▁đã	-142
id	-143
▁được	-144
ang	-145
▁như	-146
st	-147
ây	-148
▁họ	-149
▁-	-150
ur	-151
▁this	-152
▁ra	-153
ình	-154
ig	-155
▁cho	-156
am	-157
▁với	-158
ấy	-159
▁st	-160
▁do	-161
▁--	-162
im	-163
ere	-164
▁W	-165
▁Và	-166
▁sự	-167
▁M	-168
ce	-169
op	-170
▁H	-171
ần	-172
▁mà	-173
▁for	-174
▁li	-175
ải	-176
ver	-177
▁làm	-178
▁1	-179
ke	-180
▁con	-181
▁was	-182
ol	-183
▁ở	-184
ằng	-185
ir	-186
▁an	-187
ith	-188
▁để	-189
ực	-190
▁sa	-191
▁về	-192
▁Đ	-193
ro	-194
▁sẽ	-195
▁are	-196
▁cả	-197
▁Ch	-198
ái	-199
▁ho	-200
▁u	-201
th	-202
ally	-203
ống	-204
▁lo	-205
ân	-206
iể	-207
ơn	-208
▁with	-209
ật	-210
iên	-211
▁:	-212
iết	-213
▁điều	-214
▁have	-215
▁thế	-216
ad	-217
ầu	-218
▁ab	-219
▁go	-220
▁they	-221
▁can	-222
▁se	-223
ướ	-224
ến	-225
em	-226
▁từ	-227
▁khi	-228
ành	-229
uố	-230
ation	-231
▁mo	-232
ht	-233
▁as	-234
out	-235
▁Tôi	-236
▁nói	-237
▁so	-238
ết	-239
inh	-240
ức	-241
iện	-242
▁sh	-243
▁So	-244
▁wor	-245
▁nă	-246
▁he	-247
▁đến	-248
▁what	-249
ra	-250
il	-251
ter	-252
▁com	-253
ould	-254
ính	-255
ill	-256
▁ne	-257
▁phải	-258
ul	-259
iệc	-260
▁at	-261
▁about	-262
ant	-263
ước	-264
ườ	-265
▁rằng	-266
▁Nh	-267
▁not	-268
▁vào	-269
▁The	-270
▁me	-271
▁gì	-272
▁đang	-273
àn	-274
ường	-275
▁việc	-276
od	-277
ers	-278
▁lại	-279
ận	-280
ản	-281
▁fr	-282
ust	-283
▁thấy	-284
▁all	-285
▁nghĩ	-286
▁độ	-287
▁j	-288
▁rất	-289
▁cách	-290
▁ex	-291
▁di	-292
▁hơn	-293
ag	-294
00	-295
âu	-296
▁us	-297
▁nhiều	-298
ight	-299
▁L	-300
▁my	-301
ùng	-302
▁som	-303
ươ	-304
ài	-305
▁pe	-306
art	-307
▁khác	-308
ear	-309
▁thực	-310
ck	-311
▁đầu	-312
▁K	-313
iến	-314
ương	-315
ậy	-316
▁pro	-317
▁P	-318
▁or	-319
ess	-320
▁We	-321
ople	-322
▁đây	-323
▁de	-324
▁học	-325
um	-326
▁there	-327
pp	-328
ối	-329
▁G	-330
ist	-331
ok	-332
ạo	-333
ổi	-334
▁chỉ	-335
ọi	-336
ate	-337
est	-338
▁people	-339
▁công	-340
▁2	-341
ếu	-342
▁trên	-343
ure	-344
▁It	-345
▁like	-346
▁ba	-347
▁D	-348
▁cái	-349
▁vì	-350
▁one	-351
anh	-352
▁nào	-353
ies	-354
▁biết	-355
▁from	-356
ity	-357
nt	-358
▁Chúng	-359
▁chuy	-360
▁đề	-361
ble	-362
át	-363
ung	-364
▁ma	-365
el	-366
iệu	-367
àng	-368
ca	-369
ff	-370
▁năm	-371
ũng	-372
ia	-373
ind	-374
ơi	-375
▁kn	-376
▁our	-377
use	-378
▁đi	-379
▁thứ	-380
uốn	-381
▁but	-382
▁dụ	-383
▁thành	-384
ect	-385
ộc	-386
▁Y	-387
ắt	-388
▁al	-389
ink	-390
▁out	-391
and	-392
▁số	-393
▁int	-394
ery	-395
áng	-396
rou	-397
▁just	-398
▁cũng	-399
un	-400
ích	-401
▁nhà	-402
ive	-403
▁te	-404
▁Như	-405
ci	-406
▁sp	-407
ie	-408
uộc	-409
▁know	-410
os	-411
all	-412
▁bị	-413
cause	-414
▁them	-415
▁thing	-416
▁quan	-417
▁kho	-418
ập	-419
▁R	-420
▁But	-421
ăn	-422
ồi	-423
ain	-424
▁muốn	-425
au	-426
ich	-427
ort	-428
▁who	-429
ởi	-430
▁E	-431
úc	-432
▁these	-433
▁O	-434
▁if	-435
her	-436
▁mình	-437
ữa	-438
▁think	-439
▁very	-440
▁nhất	-441
▁nhưng	-442
▁up	-443
one	-444
▁get	-445
▁Nhưng	-446
▁tạo	-447
ưở	-448
ưởng	-449
▁động	-450
án	-451
▁chính	-452
▁giới	-453
ặt	-454
og	-455
▁by	-456
▁nên	-457
ấn	-458
▁when	-459
▁pl	-460
▁vậy	-461
▁act	-462
▁ca	-463
▁your	-464
▁tim	-465
▁more	-466
▁Wh	-467
▁im	-468
▁some	-469
▁going	-470
ày	-471
ine	-472
ền	-473
▁see	-474
òn	-475
▁year	-476
▁lớ	-477
gh	-478
ắc	-479
▁because	-480
our	-481
êu	-482
▁hình	-483
ưa	-484
▁su	-485
ỏi	-486
ện	-487
▁had	-488
ame	-489
▁gia	-490
iểu	-491
▁hiện	-492
▁giờ	-493
▁sống	-494
▁F	-495
▁tiế	-496
▁tại	-497
▁would	-498
ard	-499
▁nếu	-500
▁nhận	-501
▁were	-502
▁mọi	-503
▁how	-504
▁ever	-505
ượng	-506
ast	-507
âm	-508
▁their	-509
ứng	-510
ìn	-511
▁thu	-512
▁quy	-513
▁Tr	-514
iz	-515
▁cuộc	-516
▁hay	-517
▁cần	-518
▁tố	-519
▁which	-520
ặc	-521
▁tự	-522
▁work	-523
▁thì	-524
▁really	-525
▁look	-526
hi	-527
ide	-528
▁want	-529
ội	-530
ánh	-531
ually	-532
▁đị	-533
▁comp	-534
ôn	-535
áo	-536
reat	-537
ore	-538
ous	-539
ọng	-540
▁tất	-541
▁ông	-542
▁J	-543
▁way	-544
òng	-545
▁ấy	-546
▁bởi	-547
▁tho	-548
▁tới	-549
▁đồ	-550
ri	-551
▁theo	-552
▁le	-553
ment	-554
▁bắt	-555
ẫn	-556
ans	-557
▁tin	-558
▁còn	-559
iểm	-560
▁nhìn	-561
▁lớn	-562
hing	-563
ven	-564
▁world	-565
act	-566
▁cùng	-567
▁bằng	-568
▁ý	-569
▁cảm	-570
iển	-571
▁sau	-572
▁tế	-573
▁dụng	-574
▁You	-575
▁thật	-576
▁cứ	-577
▁anh	-578
▁câu	-579
▁lên	-580
▁bản	-581
res	-582
▁ag	-583
ảng	-584
▁exp	-585
ai	-586
ther	-587
▁bu	-588
▁thời	-589
▁sao	-590
▁chuyện	-591
▁here	-592
▁trở	-593
▁In	-594
ab	-595
▁qua	-596
▁then	-597
iệm	-598
▁say	-599
▁3	-600
▁ngày	-601
▁nhân	-602
▁cơ	-603
▁has	-604
▁time	-605
▁bộ	-606
ob	-607
alk	-608
▁This	-609
ace	-610
▁mu	-611
▁sinh	-612
ions	-613
▁em	-614
▁co	-615
ỗi	-616
▁every	-617
▁per	-618
▁lu	-619
ục	-620
ap	-621
ảnh	-622
ìm	-623
▁năng	-624
ạt	-625
▁actually	-626
▁don	-627
▁sử	-628
▁phát	-629
▁trước	-630
▁nước	-631
▁man	-632
▁Nó	-633
▁đổi	-634
▁into	-635
iệt	-636
▁fe	-637
ud	-638
ild	-639
▁toàn	-640
red	-641
ence	-642
age	-643
▁could	-644
▁phần	-645
ảo	-646
áy	-647
▁will	-648
ach	-649
▁nơi	-650
▁thông	-651
▁dự	-652
▁tìm	-653
▁nhau	-654
▁years	-655
▁mới	-656
▁thay	-657
▁did	-658
▁now	-659
▁vấn	-660
▁định	-661
▁en	-662
▁Now	-663
▁xu	-664
▁other	-665
▁hệ	-666
fe	-667
▁things	-668
itt	-669
▁trường	-670
▁nhiên	-671
ves	-672
▁tính	-673
nder	-674
▁Đây	-675
▁where	-676
ách	-677
▁trình	-678
pt	-679
▁tu	-680
▁mạ	-681
▁tốt	-682
▁tưởng	-683
▁pr	-684
▁kết	-685
▁than	-686
ấu	-687
ical	-688
ăng	-689
▁somet	-690
▁They	-691
ấp	-692
▁vật	-693
ge	-694
▁cl	-695
▁diff	-696
ảy	-697
▁happ	-698
▁hàng	-699
ãy	-700
▁make	-701
▁lý	-702
wo	-703
▁no	-704
▁hỏi	-705
so	-706
▁any	-707
▁need	-708
▁Bạn	-709
ợp	-710
ry	-711
▁un	-712
▁máy	-713
▁ảnh	-714
ạc	-715
▁been	-716
út	-717
▁hợp	-718
ome	-719
áp	-720
▁po	-721
▁Đó	-722
ice	-723
▁imp	-724
ree	-725
▁mặt	-726
irst	-727
ving	-728
ắn	-729
▁hành	-730
▁tiếp	-731
▁start	-732
▁said	-733
ite	-734
ea	-735
ory	-736
▁kinh	-737
▁nữa	-738
▁ar	-739
ep	-740
▁gian	-741
▁thức	-742
▁part	-743
▁hội	-744
▁vị	-745
ac	-746
own	-747
▁tuy	-748
▁thiết	-749
▁chiế	-750
▁rồi	-751
orm	-752
▁xem	-753
ào	-754
▁liệu	-755
ass	-756
▁trọng	-757
▁over	-758
▁something	-759
▁hoá	-760
▁thích	-761
▁two	-762
▁cô	-763
▁dis	-764
▁right	-765
ound	-766
ount	-767
ễn	-768
ồn	-769
ệnh	-770
▁đồng	-771
round	-772
▁back	-773
▁giải	-774
▁much	-775
ue	-776
▁differe	-777
▁first	-778
iêu	-779
if	-780
iv	-781
sel	-782
ens	-783
▁new	-784
ell	-785
▁lượng	-786
▁call	-787
▁trẻ	-788
▁hai	-789
ber	-790
ắng	-791
▁talk	-792
▁thường	-793
▁ai	-794
▁those	-795
▁bất	-796
▁vài	-797
▁đo	-798
ple	-799
▁đều	-800
▁she	-801
olog	-802
▁also	-803
▁tiên	-804
▁U	-805
ater	-806
▁Một	-807
ign	-808
▁đối	-809
▁sáng	-810
cent	-811
ộng	-812
ển	-813
▁got	-814
▁hiểu	-815
king	-816
▁quá	-817
▁nay	-818
▁id	-819
▁tâm	-820
ốc	-821
▁cont	-822
ght	-823
▁loại	-824
ult	-825
▁;	-826
▁Kh	-827
are	-828
▁giống	-829
▁lần	-830
▁lot	-831
▁life	-832
▁kind	-833
▁Vì	-834
▁ac	-835
▁5	-836
ittle	-837
vel	-838
▁cứu	-839
way	-840
▁bệnh	-841
▁thống	-842
ịch	-843
▁bao	-844
co	-845
ru	-846
▁little	-847
ảm	-848
ám	-849
▁viên	-850
ody	-851
▁under	-852
▁bet	-853
êm	-854
▁That	-855
▁his	-856
▁fo	-857
ệt	-858
▁most	-859
▁nghệ	-860
▁điểm	-861
▁chang	-862
▁nghĩa	-863
iền	-864
000	-865
▁ngo	-866
▁gọi	-867
▁am	-868
▁Có	-869
▁4	-870
▁res	-871
ick	-872
▁nhỏ	-873
▁day	-874
▁Vậy	-875
▁only	-876
ated	-877
▁even	-878
ations	-879
▁her	-880
▁Họ	-881
ank	-882
able	-883
▁đưa	-884
▁What	-885
▁hoàn	-886
▁tương	-887
ict	-888
▁nghiệm	-889
▁bl	-890
▁may	-891
▁quả	-892
▁des	-893
▁ad	-894
▁tác	-895
▁10	-896
▁đường	-897
▁bo	-898
int	-899
ade	-900
▁vẫn	-901
▁many	-902
▁Ng	-903
▁take	-904
tern	-905
▁xảy	-906
ph	-907
ăm	-908
▁different	-909
▁show	-910
▁chiếc	-911
▁good	-912
rough	-913
▁sy	-914
▁nguy	-915
▁gen	-916
ew	-917
▁thuật	-918
▁He	-919
▁dùng	-920
pl	-921
▁19	-922
▁đại	-923
▁hoặc	-924
▁biệt	-925
▁gr	-926
ẳng	-927
▁hum	-928
▁bên	-929
ance	-930
▁real	-931
▁từng	-932
▁20	-933
▁dân	-934
▁St	-935
ão	-936
▁triển	-937
uyền	-938
ase	-939
▁chuyển	-940
iệp	-941
ọn	-942
▁lúc	-943
▁diễn	-944
ord	-945
▁vi	-946
▁Điều	-947
ẩn	-948
ath	-949
ish	-950
▁la	-951
▁around	-952
▁through	-953
▁does	-954
cess	-955
▁ro	-956
▁quyết	-957
▁trị	-958
ừng	-959
▁cố	-960
▁cao	-961
other	-962
▁Những	-963
▁nghe	-964
úp	-965
ning	-966
ark	-967
ents	-968
▁ăn	-969
▁There	-970
▁Q	-971
▁pre	-972
▁dạ	-973
▁comm	-974
▁tuyệt	-975
uốc	-976
ress	-977
ial	-978
▁mỗi	-979
▁tổ	-980
▁cầu	-981
▁khoảng	-982
uối	-983
form	-984
▁lực	-985
▁chất	-986
▁kế	-987
▁khu	-988
▁tell	-989
▁Nếu	-990
▁phụ	-991
ip	-992
du	-993
▁down	-994
▁tra	-995
▁being	-996
▁off	-997
▁hu	-998
ary	-999
▁spe	-1000
▁'	-1001
▁lời	-1002
▁giáo	-1003
▁put	-1004
ép	-1005
ne	-1006
ợi	-1007
▁đất	-1008
ầm	-1009
▁use	-1010
óng	-1011
rain	-1012
▁giúp	-1013
blem	-1014
be	-1015
ắp	-1016
ful	-1017
▁ơn	-1018
▁thou	-1019
▁trung	-1020
▁problem	-1021
▁chủ	-1022
ứa	-1023
ẩm	-1024
ert	-1025
wn	-1026
ors	-1027
▁bảo	-1028
xt	-1029
▁giá	-1030
▁tiến	-1031
▁nữ	-1032
▁hết	-1033
▁phòng	-1034
▁sm	-1035
▁happen	-1036
ưới	-1037
ject	-1038
▁nghiên	-1039
lect	-1040
▁chưa	-1041
▁xuất	-1042
ual	-1043
▁mang	-1044
ướng	-1045
ether	-1046
day	-1047
▁xe	-1048
▁inc	-1049
▁Well	-1050
▁fact	-1051
▁wr	-1052
▁phí	-1053
▁tình	-1054
▁same	-1055
▁liên	-1056
▁count	-1057
ved	-1058
▁phân	-1059
óc	-1060
▁Anh	-1061
▁tranh	-1062
▁đơn	-1063
▁não	-1064
ars	-1065
ower	-1066
▁tập	-1067
▁truyền	-1068
▁tuổi	-1069
▁đúng	-1070
▁phương	-1071
▁điện	-1072
ile	-1073
ậu	-1074
▁bình	-1075
▁đặt	-1076
we	-1077
▁bài	-1078
▁try	-1079
▁tượng	-1080
ak	-1081
▁come	-1082
▁big	-1083
▁tay	-1084
ian	-1085
stem	-1086
▁biến	-1087
urn	-1088
▁Khi	-1089
▁tiền	-1090
ces	-1091
ons	-1092
ft	-1093
▁giữa	-1094
▁sản	-1095
ét	-1096
▁If	-1097
▁tiếng	-1098
▁pers	-1099
▁yêu	-1100
ib	-1101
▁br	-1102
▁fl	-1103
▁bec	-1104
▁three	-1105
ible	-1106
▁dec	-1107
▁doing	-1108
▁find	-1109
ạnh	-1110
▁khả	-1111
ặp	-1112
▁ngay	-1113
▁trả	-1114
ít	-1115
▁hãy	-1116
▁great	-1117
ED	-1118
▁khoa	-1119
▁sc	-1120
▁sur	-1121
av	-1122
chn	-1123
▁bé	-1124
ting	-1125
pe	-1126
▁thú	-1127
nds	-1128
ically	-1129
▁khó	-1130
▁bỏ	-1131
▁lấy	-1132
▁Không	-1133
▁ty	-1134
ửa	-1135
ric	-1136
self	-1137
▁gần	-1138
▁human	-1139
ire	-1140
▁percent	-1141
▁chu	-1142
cial	-1143
▁xã	-1144
▁hoạt	-1145
▁stud	-1146
▁cá	-1147
▁quest	-1148
fter	-1149
▁well	-1150
▁brain	-1151
fore	-1152
▁chiến	-1153
▁child	-1154
▁thị	-1155
▁system	-1156
▁đáng	-1157
▁!	-1158
▁sách	-1159
▁app	-1160
▁Trong	-1161
▁lear	-1162
▁chí	-1163
igh	-1164
ics	-1165
▁phẩm	-1166
▁ind	-1167
▁let	-1168
▁own	-1169
▁pháp	-1170
ấm	-1171
ates	-1172
▁hiệu	-1173
▁called	-1174
▁Ph	-1175
▁thân	-1176
▁..	-1177
▁long	-1178
▁Sh	-1179
▁cuối	-1180
▁techn	-1181
te	-1182
▁chơi	-1183
▁why	-1184
ating	-1185
ition	-1186
mer	-1187
▁sim	-1188
▁bel	-1189
▁inv	-1190
iver	-1191
con	-1192
▁Các	-1193
thing	-1194
▁mất	-1195
▁TED	-1196
ọc	-1197
ology	-1198
,000	-1199
▁sức	-1200
▁minh	-1201
illion	-1202
▁đời	-1203
▁build	-1204
ack	-1205
▁kể	-1206
▁made	-1207
▁wom	-1208
ail	-1209
▁Be	-1210
ẫu	-1211
▁Mỹ	-1212
▁rem	-1213
▁again	-1214
▁should	-1215
ious	-1216
ub	-1217
▁mạnh	-1218
▁import	-1219
▁nghiệp	-1220
▁col	-1221
▁ngoài	-1222
óm	-1223
▁ít	-1224
▁dẫn	-1225
▁underst	-1226
ren	-1227
▁khí	-1228
▁lập	-1229
▁tài	-1230
▁mô	-1231
▁exper	-1232
ize	-1233
▁creat	-1234
▁hel	-1235
▁đấy	-1236
▁ask	-1237
▁loài	-1238
per	-1239
▁kỳ	-1240
ork	-1241
▁bức	-1242
ừa	-1243
ậm	-1244
les	-1245
▁ins	-1246
ose	-1247
▁tinh	-1248
▁Thank	-1249
▁luôn	-1250
▁6	-1251
ool	-1252
▁dựng	-1253
▁xây	-1254
▁change	-1255
▁X	-1256
olut	-1257
▁trí	-1258
▁...	-1259
▁tiêu	-1260
▁person	-1261
▁phố	-1262
ities	-1263
▁end	-1264
▁tên	-1265
▁văn	-1266
▁cộng	-1267
uyết	-1268
▁today	-1269
▁chứng	-1270
▁vô	-1271
▁âm	-1272
▁feel	-1273
▁pos	-1274
▁Gi	-1275
▁sch	-1276
▁cụ	-1277
▁didn	-1278
ope	-1279
▁thought	-1280
▁tử	-1281
▁important	-1282
ise	-1283
▁200	-1284
ầy	-1285
▁after	-1286
▁hướng	-1287
ys	-1288
▁car	-1289
▁ev	-1290
▁idea	-1291
▁nhạc	-1292
▁mean	-1293
▁sci	-1294
▁thử	-1295
ôm	-1296
▁viết	-1297
▁cour	-1298
▁chức	-1299
▁nguyên	-1300
▁Hãy	-1301
▁kiến	-1302
▁quốc	-1303
▁ob	-1304
▁giả	-1305
▁đâu	-1306
▁last	-1307
ạm	-1308
ull	-1309
▁ứng	-1310
▁vời	-1311
▁started	-1312
▁cr	-1313
▁exam	-1314
erest	-1315
▁chọn	-1316
▁giản	-1317
▁quyền	-1318
ty	-1319
▁trans	-1320
▁đặc	-1321
▁understand	-1322
▁chế	-1323
az	-1324
▁tư	-1325
body	-1326
▁bố	-1327
▁gl	-1328
▁ke	-1329
kes	-1330
▁suy	-1331
▁chết	-1332
▁help	-1333
▁bào	-1334
▁went	-1335
▁mạng	-1336
iếm	-1337
ạch	-1338
▁bas	-1339
▁its	-1340
gan	-1341
▁cấp	-1342
ese	-1343
▁rel	-1344
▁9	-1345
▁vụ	-1346
als	-1347
▁triệu	-1348
ạp	-1349
▁How	-1350
▁ngu	-1351
▁tăng	-1352
▁inst	-1353
▁bà	-1354
ough	-1355
▁thần	-1356
ẹp	-1357
▁nền	-1358
▁story	-1359
▁before	-1360
ood	-1361
▁đạo	-1362
▁belie	-1363
▁might	-1364
▁lẽ	-1365
▁đứa	-1366
▁design	-1367
▁7	-1368
▁phá	-1369
▁play	-1370
▁power	-1371
▁sĩ	-1372
▁khỏi	-1373
▁pol	-1374
▁màu	-1375
▁produ	-1376
▁interest	-1377
▁him	-1378
▁art	-1379
▁đánh	-1380
▁inter	-1381
▁never	-1382
▁mẹ	-1383
▁give	-1384
▁course	-1385
▁8	-1386
ular	-1387
▁ent	-1388
▁gặp	-1389
▁tháng	-1390
▁better	-1391
▁sl	-1392
ắm	-1393
▁dưới	-1394
▁Thế	-1395
▁kid	-1396
▁school	-1397
▁cons	-1398
▁turn	-1399
▁able	-1400
▁still	-1401
oc	-1402
▁fam	-1403
▁found	-1404
atch	-1405
ists	-1406
▁bit	-1407
▁New	-1408
ility	-1409
▁xuống	-1410
ss	-1411
ction	-1412
ost	-1413
ave	-1414
ồng	-1415
▁chút	-1416
ix	-1417
ily	-1418
lic	-1419
oth	-1420
▁gắng	-1421
▁imag	-1422
▁point	-1423
▁few	-1424
▁learn	-1425
âng	-1426
ather	-1427
ience	-1428
ween	-1429
▁phép	-1430
▁khá	-1431
velop	-1432
▁nhóm	-1433
▁quanh	-1434
▁mở	-1435
▁When	-1436
▁dịch	-1437
▁%	-1438
▁came	-1439
▁bay	-1440
ata	-1441
▁vực	-1442
▁xác	-1443
▁khiến	-1444
▁dữ	-1445
▁án	-1446
▁Bây	-1447
▁commun	-1448
▁next	-1449
▁Af	-1450
▁chia	-1451
▁tog	-1452
▁together	-1453
ote	-1454
ness	-1455
▁duy	-1456
▁thêm	-1457
erg	-1458
ãi	-1459
▁tham	-1460
iss	-1461
▁cell	-1462
▁trò	-1463
▁each	-1464
▁Ô	-1465
▁another	-1466
▁mức	-1467
▁thuyết	-1468
▁nhanh	-1469
▁quay	-1470
cy	-1471
▁Ho	-1472
▁comple	-1473
ited	-1474
▁dạng	-1475
read	-1476
alth	-1477
▁gây	-1478
▁cực	-1479
▁30	-1480
▁đàn	-1481
▁between	-1482
▁rõ	-1483
ense	-1484
ward	-1485
▁question	-1486
▁develop	-1487
▁vọng	-1488
▁high	-1489
▁love	-1490
ized	-1491
▁nguồn	-1492
▁ago	-1493
▁mod	-1494
▁num	-1495
▁vùng	-1496
arch	-1497
▁cảnh	-1498
▁dù	-1499
▁bây	-1500
▁báo	-1501
▁sort	-1502
▁đẹp	-1503
▁dr	-1504
▁tục	-1505
▁cre	-1506
▁giác	-1507
▁xa	-1508
uc	-1509
ings	-1510
meric	-1511
▁min	-1512
▁ser	-1513
▁place	-1514
▁sát	-1515
▁word	-1516
▁mon	-1517
▁càng	-1518
▁chắc	-1519
iness	-1520
▁dễ	-1521
▁đủ	-1522
▁data	-1523
▁used	-1524
▁bi	-1525
ied	-1526
êng	-1527
ms	-1528
▁ví	-1529
▁cây	-1530
▁trang	-1531
▁pat	-1532
▁phim	-1533
▁phía	-1534
▁nhớ	-1535
oney	-1536
▁four	-1537
ures	-1538
▁hôm	-1539
▁biểu	-1540
▁hưởng	-1541
▁vide	-1542
ways	-1543
▁chú	-1544
▁grow	-1545
▁đoạn	-1546
áu	-1547
▁50	-1548
ưu	-1549
▁ext	-1550
▁met	-1551
▁too	-1552
▁vu	-1553
▁chị	-1554
▁women	-1555
▁Al	-1556
▁vũ	-1557
▁mom	-1558
▁kì	-1559
▁kiểm	-1560
ale	-1561
▁att	-1562
▁plan	-1563
▁chẳng	-1564
▁trái	-1565
▁Do	-1566
▁med	-1567
▁example	-1568
iêng	-1569
▁Americ	-1570
▁thương	-1571
ets	-1572
▁15	-1573
conom	-1574
▁light	-1575
formation	-1576
▁Quốc	-1577
▁fin	-1578
▁water	-1579
▁dài	-1580
▁Ông	-1581
▁100	-1582
ered	-1583
cept	-1584
▁vòng	-1585
▁op	-1586
▁read	-1587
ced	-1588
ủng	-1589
▁ngữ	-1590
▁luận	-1591
▁old	-1592
▁done	-1593
▁phản	-1594
▁Because	-1595
ps	-1596
ins	-1597
▁cent	-1598
▁live	-1599
▁Trung	-1600
ock	-1601
▁str	-1602
ạy	-1603
▁đôi	-1604
▁less	-1605
▁small	-1606
▁đầy	-1607
▁doesn	-1608
air	-1609
▁dục	-1610
ative	-1611
▁wanted	-1612
▁technology	-1613
cond	-1614
▁lợi	-1615
orn	-1616
▁mus	-1617
▁gra	-1618
▁kia	-1619
▁giảm	-1620
ựa	-1621
▁expl	-1622
▁thậm	-1623
▁beh	-1624
ah	-1625
ằm	-1626
ross	-1627
▁ed	-1628
▁looking	-1629
▁Is	-1630
ternet	-1631
▁thuốc	-1632
ond	-1633
▁always	-1634
gr	-1635
▁believe	-1636
▁kiếm	-1637
ont	-1638
▁vừa	-1639
▁tích	-1640
selves	-1641
▁chân	-1642
▁money	-1643
▁trăm	-1644
▁[	-1645
▁rec	-1646
▁thư	-1647
▁econom	-1648
▁eff	-1649
▁]	-1650
▁video	-1651
▁care	-1652
▁children	-1653
ably	-1654
▁partic	-1655
oy	-1656
▁thôi	-1657
ưỡ	-1658
▁hộ	-1659
▁gener	-1660
▁đình	-1661
iếu	-1662
▁My	-1663
▁comput	-1664
▁hạn	-1665
▁giao	-1666
▁bus	-1667
ational	-1668
▁ter	-1669
▁lệ	-1670
▁lai	-1671
▁bước	-1672
▁reas	-1673
▁working	-1674
▁poss	-1675
▁dem	-1676
▁đô	-1677
àu	-1678
▁whole	-1679
▁Người	-1680
▁sâu	-1681
▁teach	-1682
▁run	-1683
nce	-1684
ands	-1685
▁rob	-1686
▁Un	-1687
▁far	-1688
▁book	-1689
▁Tại	-1690
▁môi	-1691
▁away	-1692
▁toán	-1693
▁As	-1694
▁tỉ	-1695
▁guy	-1696
▁project	-1697
▁trải	-1698
▁gh	-1699
▁hy	-1700
ead	-1701
▁cam	-1702
ụp	-1703
iềm	-1704
▁ear	-1705
▁hard	-1706
▁tồn	-1707
▁information	-1708
▁trời	-1709
▁el	-1710
▁diện	-1711
▁chi	-1712
▁move	-1713
▁nat	-1714
▁home	-1715
▁phục	-1716
▁Bởi	-1717
▁rộng	-1718
▁country	-1719
▁giữ	-1720
▁thanh	-1721
▁trying	-1722
▁kids	-1723
li	-1724
▁nối	-1725
▁dành	-1726
▁food	-1727
▁đoán	-1728
▁địa	-1729
▁create	-1730
man	-1731
ural	-1732
uốt	-1733
▁lòng	-1734
▁health	-1735
ries	-1736
▁riêng	-1737
▁thuộc	-1738
ird	-1739
▁tạp	-1740
▁mind	-1741
▁resp	-1742
▁lar	-1743
gg	-1744
io	-1745
led	-1746
▁reg	-1747
▁sợ	-1748
▁stu	-1749
▁mục	-1750
▁phủ	-1751
▁dạy	-1752
▁mắt	-1753
▁nổi	-1754
▁rep	-1755
▁frie	-1756
▁lã	-1757
▁vệ	-1758
▁thí	-1759
nect	-1760
▁sai	-1761
▁nghi	-1762
olution	-1763
▁vẻ	-1764
ism	-1765
▁đạt	-1766
atter	-1767
▁lead	-1768
▁đứng	-1769
bo	-1770
▁means	-1771
▁using	-1772
▁million	-1773
ao	-1774
▁doll	-1775
▁eng	-1776
▁five	-1777
▁căn	-1778
▁thúc	-1779
▁kỹ	-1780
▁Internet	-1781
▁luật	-1782
▁sẻ	-1783
ten	-1784
ines	-1785
cer	-1786
ract	-1787
▁mẫu	-1788
▁xung	-1789
▁cou	-1790
▁tối	-1791
its	-1792
▁sk	-1793
▁lịch	-1794
▁vis	-1795
▁pict	-1796
ina	-1797
▁Go	-1798
aces	-1799
▁supp	-1800
▁become	-1801
▁sub	-1802
▁open	-1803
▁process	-1804
▁bàn	-1805
▁đọc	-1806
▁ánh	-1807
▁hand	-1808
▁space	-1809
▁maybe	-1810
▁robot	-1811
▁lớp	-1812
ặng	-1813
▁sing	-1814
ạng	-1815
ruct	-1816
▁acc	-1817
▁fut	-1818
▁Cảm	-1819
▁kỷ	-1820
▁inf	-1821
▁One	-1822
▁trụ	-1823
ories	-1824
▁yếu	-1825
▁conf	-1826
▁pub	-1827
ments	-1828
▁She	-1829
sw	-1830
▁took	-1831
▁second	-1832
▁thinking	-1833
ek	-1834
kay	-1835
▁compan	-1836
▁form	-1837
▁everything	-1838
▁Ind	-1839
▁vui	-1840
▁anim	-1841
▁khoẻ	-1842
▁khắp	-1843
▁organ	-1844
▁trông	-1845
▁elect	-1846
▁future	-1847
wh	-1848
▁tiết	-1849
▁chương	-1850
▁best	-1851
▁chạy	-1852
▁walk	-1853
iew	-1854
ran	-1855
▁An	-1856
▁ngồi	-1857
▁energ	-1858
▁gái	-1859
▁fun	-1860
▁phút	-1861
▁quite	-1862
àm	-1863
▁pass	-1864
▁sư	-1865
▁cậu	-1866
▁pop	-1867
ues	-1868
▁12	-1869
▁trợ	-1870
▁cuốn	-1871
▁says	-1872
ention	-1873
▁mối	-1874
▁prob	-1875
▁social	-1876
aut	-1877
ris	-1878
▁sol	-1879
▁sắc	-1880
▁number	-1881
▁buổi	-1882
ượt	-1883
ouse	-1884
▁hầu	-1885
▁chắn	-1886
▁lang	-1887
▁suốt	-1888
▁enough	-1889
iting	-1890
▁univer	-1891
--	-1892
alf	-1893
vern	-1894
▁head	-1895
cus	-1896
▁answ	-1897
▁kiện	-1898
▁left	-1899
▁soci	-1900
▁biển	-1901
ety	-1902
▁trúc	-1903
▁comes	-1904
▁lives	-1905
▁Afric	-1906
▁mù	-1907
▁chung	-1908
eas	-1909
▁ké	-1910
imes	-1911
▁cle	-1912
ertain	-1913
▁energy	-1914
▁getting	-1915
alle	-1916
▁ngôn	-1917
▁grou	-1918
▁Why	-1919
▁For	-1920
▁mua	-1921
old	-1922
▁Qu	-1923
▁beg	-1924
▁body	-1925
ital	-1926
▁war	-1927
▁kiểu	-1928
▁No	-1929
▁doanh	-1930
▁Phi	-1931
▁York	-1932
▁These	-1933
▁making	-1934
▁pres	-1935
ices	-1936
▁Vâng	-1937
▁Ar	-1938
▁web	-1939
▁Sau	-1940
▁Tất	-1941
vir	-1942
▁cửa	-1943
ever	-1944
èo	-1945
▁vận	-1946
▁Jo	-1947
ogra	-1948
▁glob	-1949
▁khám	-1950
▁ngạc	-1951
▁month	-1952
▁sở	-1953
▁times	-1954
▁set	-1955
▁xét	-1956
▁xúc	-1957
▁cánh	-1958
vers	-1959
▁men	-1960
▁rese	-1961
▁aut	-1962
▁room	-1963
ốt	-1964
ron	-1965
▁moment	-1966
▁happened	-1967
ake	-1968
▁ban	-1969
▁ràng	-1970
▁tuần	-1971
▁thoại	-1972
▁bán	-1973
▁lâu	-1974
▁sense	-1975
▁countries	-1976
▁makes	-1977
▁sound	-1978
▁hiểm	-1979
▁hồi	-1980
tty	-1981
▁Let	-1982
viron	-1983
▁dollars	-1984
▁probably	-1985
reen	-1986
▁without	-1987
ember	-1988
ex	-1989
▁fu	-1990
▁job	-1991
▁govern	-1992
▁che	-1993
▁cấu	-1994
idd	-1995
▁contr	-1996
▁connect	-1997
ific	-1998
▁phot	-1999
▁nhiệm	-2000
▁business	-2001
▁18	-2002
▁talking	-2003
▁top	-2004
land	-2005
▁interesting	-2006
hip	-2007
ner	-2008
uring	-2009
▁keep	-2010
ưỡng	-2011
▁pie	-2012
▁phức	-2013
▁music	-2014
▁beaut	-2015
▁research	-2016
▁val	-2017
▁kích	-2018
▁seem	-2019
▁thiên	-2020
ott	-2021
rib	-2022
▁dist	-2023
▁cung	-2024
▁reason	-2025
ĩnh	-2026
▁nằm	-2027
▁chụp	-2028
▁chuyên	-2029
▁experience	-2030
ger	-2031
▁told	-2032
▁nhập	-2033
▁40	-2034
▁stre	-2035
▁add	-2036
▁Ở	-2037
▁da	-2038
▁pretty	-2039
me	-2040
▁environ	-2041
very	-2042
▁hist	-2043
▁educ	-2044
▁else	-2045
▁vo	-2046
▁bóng	-2047
▁science	-2048
▁ngôi	-2049
▁minut	-2050
▁young	-2051
▁cạnh	-2052
▁thái	-2053
▁such	-2054
▁cur	-2055
▁ey	-2056
▁wo	-2057
uyện	-2058
▁across	-2059
der	-2060
▁cult	-2061
ữu	-2062
▁kẻ	-2063
▁phys	-2064
▁allow	-2065
▁simple	-2066
att	-2067
▁độc	-2068
ided	-2069
▁det	-2070
▁nam	-2071
▁opp	-2072
▁prot	-2073
▁viện	-2074
▁polit	-2075
ately	-2076
▁stand	-2077
▁cells	-2078
▁matter	-2079
by	-2080
uyên	-2081
▁All	-2082
▁hữu	-2083
▁băng	-2084
▁langu	-2085
ime	-2086
▁saw	-2087
gs	-2088
ếp	-2089
▁chứ	-2090
▁hạnh	-2091
▁sign	-2092
▁stuff	-2093
ash	-2094
▁half	-2095
▁ngành	-2096
▁gu	-2097
▁hoà	-2098
▁chỗ	-2099
▁eas	-2100
ograph	-2101
ient	-2102
▁case	-2103
▁dung	-2104
▁asked	-2105
▁trưởng	-2106
▁vẽ	-2107
▁ways	-2108
▁khủng	-2109
▁living	-2110
▁Here	-2111
▁thập	-2112
▁side	-2113
▁mor	-2114
▁mark	-2115
work	-2116
ortun	-2117
lf	-2118
ốn	-2119
▁model	-2120
▁inside	-2121
▁scient	-2122
▁đa	-2123
▁family	-2124
ẵn	-2125
▁ích	-2126
ov	-2127
ỏng	-2128
▁hour	-2129
▁list	-2130
▁stop	-2131
▁hope	-2132
▁chuẩn	-2133
ality	-2134
▁anything	-2135
▁building	-2136
▁week	-2137
aw	-2138
▁bác	-2139
▁bring	-2140
▁bad	-2141
▁quý	-2142
ẩy	-2143
ince	-2144
▁ghi	-2145
▁happens	-2146
▁Xin	-2147
▁phúc	-2148
▁thiếu	-2149
ilt	-2150
▁Cô	-2151
▁vir	-2152
▁later	-2153
llow	-2154
where	-2155
▁Thật	-2156
ửi	-2157
▁air	-2158
▁lab	-2159
▁chịu	-2160
▁goes	-2161
ling	-2162
▁Con	-2163
▁hoạ	-2164
▁xanh	-2165
▁tấm	-2166
▁coming	-2167
▁while	-2168
ulation	-2169
▁Se	-2170
▁tệ	-2171
▁char	-2172
▁lắng	-2173
▁niệm	-2174
▁wrong	-2175
▁hề	-2176
▁global	-2177
▁particular	-2178
▁Nên	-2179
▁tức	-2180
▁phạm	-2181
▁rest	-2182
▁bre	-2183
▁cor	-2184
▁sẵn	-2185
▁pain	-2186
ộn	-2187
▁suc	-2188
▁nhiêu	-2189
▁single	-2190
▁khăn	-2191
▁Sự	-2192
▁tái	-2193
ón	-2194
▁Can	-2195
▁watch	-2196
▁environment	-2197
▁25	-2198
▁yet	-2199
▁spea	-2200
▁áp	-2201
most	-2202
▁hơi	-2203
▁problems	-2204
▁/	-2205
iter	-2206
▁sắp	-2207
ene	-2208
▁đau	-2209
▁trai	-2210
úi	-2211
▁ref	-2212
▁gir	-2213
▁lạ	-2214
▁Cái	-2215
▁Thực	-2216
▁fig	-2217
▁prof	-2218
▁Giờ	-2219
▁mặc	-2220
▁chống	-2221
▁equ	-2222
▁age	-2223
▁lạc	-2224
▁sit	-2225
aps	-2226
arth	-2227
▁prop	-2228
▁days	-2229
▁thất	-2230
arent	-2231
▁having	-2232
uôi	-2233
▁wonder	-2234
▁cải	-2235
▁def	-2236
▁dựa	-2237
▁mach	-2238
▁mã	-2239
ying	-2240
▁dev	-2241
▁mong	-2242
▁test	-2243
▁begin	-2244
▁thous	-2245
▁complete	-2246
ering	-2247
▁châu	-2248
▁đóng	-2249
▁control	-2250
▁seen	-2251
▁heart	-2252
▁someone	-2253
▁xử	-2254
▁myself	-2255
▁words	-2256
▁billion	-2257
ier	-2258
▁effect	-2259
▁public	-2260
▁tre	-2261
aterial	-2262
ization	-2263
▁trực	-2264
▁certain	-2265
▁often	-2266
ivid	-2267
▁lựa	-2268
▁level	-2269
▁mem	-2270
▁saying	-2271
▁đội	-2272
▁amaz	-2273
▁cha	-2274
▁bánh	-2275
▁cap	-2276
▁hậu	-2277
▁game	-2278
▁Or	-2279
▁cổ	-2280
▁picture	-2281
▁tổng	-2282
▁within	-2283
▁xin	-2284
▁hear	-2285
▁ideas	-2286
br	-2287
side	-2288
▁six	-2289
▁looked	-2290
▁nhi	-2291
itive	-2292
▁girl	-2293
▁nội	-2294
▁self	-2295
▁sure	-2296
▁At	-2297
cies	-2298
▁loc	-2299
▁whether	-2300
ior	-2301
▁both	-2302
▁city	-2303
▁possible	-2304
▁khắc	-2305
ưng	-2306
▁mật	-2307
▁product	-2308
▁khổ	-2309
▁vượt	-2310
úa	-2311
▁tỷ	-2312
▁nhu	-2313
▁kill	-2314
▁To	-2315
ants	-2316
▁chăm	-2317
▁computer	-2318
▁xấu	-2319
▁community	-2320
ters	-2321
▁once	-2322
▁ẩn	-2323
▁gửi	-2324
▁toà	-2325
▁fore	-2326
lish	-2327
unch	-2328
▁dần	-2329
▁tầm	-2330
sp	-2331
▁answer	-2332
gram	-2333
▁Làm	-2334
▁fil	-2335
▁nothing	-2336
▁language	-2337
▁Ý	-2338
▁hứng	-2339
▁thiện	-2340
▁Le	-2341
▁hạt	-2342
▁true	-2343
▁exact	-2344
▁Africa	-2345
▁par	-2346
▁class	-2347
▁Ấ	-2348
▁Okay	-2349
▁Earth	-2350
row	-2351
▁mag	-2352
▁Để	-2353
less	-2354
istan	-2355
ury	-2356
▁unt	-2357
▁material	-2358
▁individ	-2359
ín	-2360
▁Ấn	-2361
▁lưu	-2362
▁works	-2363
▁almost	-2364
▁cond	-2365
alleng	-2366
▁nhiệt	-2367
▁trạng	-2368
▁chiều	-2369
▁entire	-2370
▁iss	-2371
▁lãnh	-2372
rop	-2373
▁đột	-2374
▁danh	-2375
▁sang	-2376
▁night	-2377
▁amazing	-2378
ready	-2379
ush	-2380
▁face	-2381
▁Br	-2382
▁dầu	-2383
▁Z	-2384
aper	-2385
rect	-2386
iddle	-2387
nding	-2388
▁beautif	-2389
▁niềm	-2390
▁incred	-2391
▁disco	-2392
get	-2393
▁challeng	-2394
▁basically	-2395
▁remember	-2396
▁individual	-2397
▁tội	-2398
▁heard	-2399
▁nhiễ	-2400
▁nghèo	-2401
ield	-2402
line	-2403
▁imagine	-2404
ken	-2405
▁sw	-2406
▁ngoại	-2407
ret	-2408
atic	-2409
▁cận	-2410
ndred	-2411
▁cost	-2412
ern	-2413
▁mar	-2414
▁decided	-2415
ồm	-2416
▁nạn	-2417
▁chữa	-2418
▁looks	-2419
ream	-2420
▁ung	-2421
▁kính	-2422
▁treat	-2423
ones	-2424
▁already	-2425
up	-2426
▁ass	-2427
▁full	-2428
▁history	-2429
▁aff	-2430
▁đấu	-2431
▁past	-2432
▁xo	-2433
imate	-2434
▁Độ	-2435
ages	-2436
▁dấu	-2437
▁net	-2438
▁Châu	-2439
▁group	-2440
▁ổ	-2441
▁aw	-2442
▁đẩy	-2443
▁experim	-2444
▁friends	-2445
NA	-2446
▁tool	-2447
▁nỗi	-2448
▁Goog	-2449
▁United	-2450
▁built	-2451
▁contin	-2452
ats	-2453
▁exc	-2454
ton	-2455
▁adv	-2456
▁ret	-2457
▁11	-2458
osed	-2459
▁kéo	-2460
▁success	-2461
▁stories	-2462
outh	-2463
▁share	-2464
▁thách	-2465
▁ngủ	-2466
▁hundred	-2467
▁thủ	-2468
vious	-2469
▁figure	-2470
▁collect	-2471
▁đen	-2472
▁follow	-2473
▁—	-2474
▁pay	-2475
▁khách	-2476
▁couple	-2477
▁Oh	-2478
▁mil	-2479
▁tắc	-2480
▁beautiful	-2481
sy	-2482
▁ô	-2483
▁wa	-2484
pect	-2485
▁wasn	-2486
▁order	-2487
▁months	-2488
▁result	-2489
▁giấy	-2490
▁Every	-2491
▁piece	-2492
▁government	-2493
▁inn	-2494
▁free	-2495
▁ngược	-2496
▁education	-2497
▁phi	-2498
ental	-2499
▁large	-2500
▁train	-2501
ange	-2502
▁program	-2503
cing	-2504
ional	-2505
▁nuôi	-2506
▁sec	-2507
xy	-2508
bon	-2509
▁huge	-2510
▁minutes	-2511
▁Google	-2512
era	-2513
▁80	-2514
▁became	-2515
hn	-2516
ivity	-2517
eah	-2518
ỉnh	-2519
▁Lo	-2520
▁bại	-2521
▁ước	-2522
▁deep	-2523
iếp	-2524
bers	-2525
▁rad	-2526
▁until	-2527
▁Tây	-2528
▁chữ	-2529
aster	-2530
▁taking	-2531
▁Re	-2532
dd	-2533
▁quản	-2534
▁soát	-2535
▁universe	-2536
▁dra	-2537
▁const	-2538
▁view	-2539
▁society	-2540
▁Fr	-2541
etic	-2542
ined	-2543
ision	-2544
▁though	-2545
▁complex	-2546
raz	-2547
ames	-2548
▁hát	-2549
▁lỗi	-2550
▁nửa	-2551
▁lĩnh	-2552
▁tiện	-2553
▁everybody	-2554
▁cử	-2555
▁mắc	-2556
med	-2557
▁lí	-2558
▁mơ	-2559
▁ris	-2560
▁quick	-2561
cul	-2562
▁hoạch	-2563
▁learned	-2564
ẩu	-2565
▁front	-2566
▁woman	-2567
▁engine	-2568
▁planet	-2569
▁gồm	-2570
▁incre	-2571
▁themselves	-2572
ony	-2573
▁must	-2574
▁team	-2575
▁nhiễm	-2576
▁exactly	-2577
▁tốc	-2578
▁chim	-2579
▁khiển	-2580
▁States	-2581
ks	-2582
ians	-2583
omes	-2584
▁China	-2585
▁dương	-2586
▁created	-2587
ane	-2588
▁tả	-2589
▁sóc	-2590
▁focus	-2591
õi	-2592
ien	-2593
▁gó	-2594
▁cắt	-2595
▁gets	-2596
▁cancer	-2597
▁60	-2598
▁hại	-2599
▁behav	-2600
▁completely	-2601
▁Tuy	-2602
▁mic	-2603
▁giết	-2604
▁house	-2605
to	-2606
▁study	-2607
▁happening	-2608
▁Pe	-2609
▁khối	-2610
▁quen	-2611
▁thẳng	-2612
ared	-2613
▁bày	-2614
▁quân	-2615
iễn	-2616
▁knew	-2617
▁dây	-2618
thers	-2619
▁đông	-2620
▁Mọi	-2621
▁struct	-2622
▁đích	-2623
▁chiếu	-2624
ired	-2625
▁lưới	-2626
▁nhờ	-2627
▁đức	-2628
▁hours	-2629
▁questions	-2630
▁đá	-2631
▁thấp	-2632
▁name	-2633
▁mê	-2634
▁John	-2635
▁shows	-2636
▁somebody	-2637
▁dòng	-2638
▁lái	-2639
▁tàu	-2640
▁prov	-2641
▁nature	-2642
▁places	-2643
ik	-2644
▁cư	-2645
▁Chỉ	-2646
▁Ngh	-2647
▁bầu	-2648
▁kinds	-2649
▁Â	-2650
▁isn	-2651
▁ngờ	-2652
▁thi	-2653
▁niên	-2654
▁itself	-2655
▁cười	-2656
▁đổ	-2657
▁199	-2658
▁law	-2659
▁đêm	-2660
ential	-2661
▁phóng	-2662
▁non	-2663
▁dàng	-2664
▁khai	-2665
cl	-2666
ute	-2667
icult	-2668
▁av	-2669
▁hỗ	-2670
▁ourselves	-2671
els	-2672
▁dri	-2673
▁rối	-2674
▁chấp	-2675
▁ngắn	-2676
▁against	-2677
cle	-2678
▁xếp	-2679
▁meet	-2680
ặn	-2681
ives	-2682
▁Eng	-2683
▁gốc	-2684
▁ones	-2685
▁abs	-2686
▁everyone	-2687
▁sàng	-2688
▁difference	-2689
▁May	-2690
▁gấp	-2691
▁tận	-2692
itting	-2693
▁listen	-2694
▁God	-2695
asure	-2696
▁nông	-2697
▁phong	-2698
ogn	-2699
▁đem	-2700
▁đu	-2701
ease	-2702
ption	-2703
▁Then	-2704
▁state	-2705
iqu	-2706
▁đỡ	-2707
▁DNA	-2708
▁others	-2709
▁Với	-2710
▁bạo	-2711
▁giây	-2712
▁since	-2713
▁speak	-2714
▁market	-2715
▁kỉ	-2716
▁neur	-2717
▁opportun	-2718
ral	-2719
▁lắm	-2720
▁parent	-2721
omet	-2722
▁sân	-2723
▁clear	-2724
▁expect	-2725
▁object	-2726
▁students	-2727
▁HI	-2728
▁close	-2729
▁American	-2730
▁sex	-2731
▁trách	-2732
ts	-2733
ator	-2734
▁Eur	-2735
▁invest	-2736
▁worked	-2737
▁relations	-2738
▁sometimes	-2739
▁bốn	-2740
▁cáo	-2741
▁gắn	-2742
▁vai	-2743
▁gave	-2744
▁mess	-2745
▁news	-2746
▁mother	-2747
▁explain	-2748
olved	-2749
▁innov	-2750
ability	-2751
▁hồ	-2752
istic	-2753
▁cân	-2754
▁surp	-2755
▁bí	-2756
▁Car	-2757
ature	-2758
▁hold	-2759
▁line	-2760
▁India	-2761
▁company	-2762
ee	-2763
ider	-2764
▁trừ	-2765
▁difficult	-2766
ann	-2767
ler	-2768
ney	-2769
▁Rồi	-2770
▁rather	-2771
▁HIV	-2772
▁dru	-2773
▁đợi	-2774
▁pot	-2775
▁fail	-2776
▁ngàn	-2777
èn	-2778
▁aud	-2779
▁third	-2780
▁America	-2781
▁tôn	-2782
▁phẫu	-2783
urs	-2784
ầng	-2785
▁hài	-2786
▁typ	-2787
▁mass	-2788
▁couldn	-2789
▁disease	-2790
▁network	-2791
▁red	-2792
▁thụ	-2793
▁thousands	-2794
▁z	-2795
▁interact	-2796
ma	-2797
haps	-2798
ibly	-2799
▁deal	-2800
ode	-2801
▁du	-2802
▁won	-2803
▁xuyên	-2804
cc	-2805
▁hoa	-2806
▁bott	-2807
▁indust	-2808
▁buy	-2809
▁miss	-2810
▁On	-2811
▁thơ	-2812
▁coll	-2813
▁nhảy	-2814
▁impro	-2815
oph	-2816
ming	-2817
aring	-2818
▁land	-2819
gest	-2820
▁pri	-2821
▁siêu	-2822
ination	-2823
▁amount	-2824
▁chuyến	-2825
▁ill	-2826
▁arch	-2827
▁oper	-2828
▁happy	-2829
illions	-2830
▁norm	-2831
▁outside	-2832
▁liter	-2833
▁changed	-2834
▁learning	-2835
▁cir	-2836
▁kĩ	-2837
▁dừng	-2838
▁emot	-2839
▁nghị	-2840
▁step	-2841
▁takes	-2842
▁powerful	-2843
rew	-2844
▁Co	-2845
▁ký	-2846
▁dep	-2847
▁oil	-2848
▁along	-2849
sych	-2850
▁màn	-2851
▁shap	-2852
▁early	-2853
▁systems	-2854
ots	-2855
▁Am	-2856
▁lao	-2857
▁giai	-2858
▁tầng	-2859
▁wind	-2860
▁ident	-2861
▁behavior	-2862
elt	-2863
book	-2864
▁rev	-2865
▁đảm	-2866
▁Some	-2867
▁population	-2868
la	-2869
▁16	-2870
enn	-2871
▁Mar	-2872
▁tải	-2873
▁fund	-2874
▁ảo	-2875
▁ele	-2876
▁sens	-2877
ases	-2878
▁hấp	-2879
▁death	-2880
▁species	-2881
ike	-2882
▁turns	-2883
▁Ge	-2884
ides	-2885
▁pred	-2886
▁appro	-2887
▁least	-2888
▁instead	-2889
not	-2890
▁Nam	-2891
wards	-2892
▁fear	-2893
▁black	-2894
▁Cho	-2895
▁fly	-2896
▁phổ	-2897
ement	-2898
▁jour	-2899
▁short	-2900
▁during	-2901
▁Mo	-2902
ples	-2903
▁guys	-2904
▁present	-2905
▁Em	-2906
▁song	-2907
erv	-2908
▁machine	-2909
app	-2910
▁khởi	-2911
▁spend	-2912
▁culture	-2913
▁90	-2914
▁lots	-2915
▁mot	-2916
▁ngăn	-2917
▁extra	-2918
▁14	-2919
▁tù	-2920
ident	-2921
▁rừng	-2922
▁democ	-2923
▁middle	-2924
▁animals	-2925
ót	-2926
ply	-2927
▁OK	-2928
vered	-2929
▁chỉnh	-2930
ither	-2931
▁nhắc	-2932
▁realized	-2933
▁eat	-2934
ients	-2935
▁easy	-2936
cif	-2937
ped	-2938
fect	-2939
orth	-2940
▁góc	-2941
▁Afgh	-2942
▁paper	-2943
▁es	-2944
▁201	-2945
▁fre	-2946
▁fall	-2947
▁khái	-2948
▁yourself	-2949
ẳn	-2950
com	-2951
jor	-2952
leep	-2953
▁thải	-2954
▁given	-2955
▁grand	-2956
▁recent	-2957
▁protect	-2958
ased	-2959
▁dig	-2960
▁hút	-2961
▁tem	-2962
▁var	-2963
▁image	-2964
▁Cal	-2965
▁arg	-2966
▁bom	-2967
▁hộp	-2968
astic	-2969
▁mole	-2970
▁nghiêm	-2971
ully	-2972
▁dream	-2973
▁behind	-2974
▁natural	-2975
he	-2976
▁Dav	-2977
▁cut	-2978
▁món	-2979
▁Được	-2980
verage	-2981
▁hands	-2982
▁luyện	-2983
▁kê	-2984
▁ổn	-2985
▁ant	-2986
▁post	-2987
▁needed	-2988
▁math	-2989
▁simply	-2990
cri	-2991
▁khuôn	-2992
▁ve	-2993
itch	-2994
▁Afghan	-2995
oss	-2996
▁70	-2997
▁Sp	-2998
▁Âu	-2999
▁giàu	-3000
▁viol	-3001
▁personal	-3002
▁Ta	-3003
▁lá	-3004
▁cập	-3005
▁del	-3006
▁tín	-3007
▁chuột	-3008
▁fight	-3009
▁needs	-3010
▁seven	-3011
▁father	-3012
ium	-3013
▁exist	-3014
▁psych	-3015
▁Ví	-3016
▁Còn	-3017
▁ru	-3018
▁doct	-3019
▁eyes	-3020
▁finally	-3021
▁13	-3022
face	-3023
▁coi	-3024
▁low	-3025
▁colle	-3026
▁field	-3027
▁pract	-3028
ềm	-3029
gen	-3030
▁già	-3031
▁liệt	-3032
▁ngân	-3033
room	-3034
▁cal	-3035
▁lim	-3036
▁incl	-3037
▁trad	-3038
▁companies	-3039
▁đỏ	-3040
▁leave	-3041
▁century	-3042
▁TV	-3043
year	-3044
▁stat	-3045
▁economic	-3046
▁tấn	-3047
▁phận	-3048
▁tuyến	-3049
▁Europe	-3050
▁đám	-3051
▁stay	-3052
itions	-3053
▁thắng	-3054
end	-3055
vent	-3056
inary	-3057
▁felt	-3058
▁direct	-3059
▁perform	-3060
ison	-3061
▁lan	-3062
ledge	-3063
olute	-3064
▁local	-3065
▁media	-3066
lo	-3067
▁bro	-3068
ource	-3069
▁trao	-3070
▁major	-3071
apt	-3072
ows	-3073
▁political	-3074
▁Hoa	-3075
▁sun	-3076
▁tai	-3077
▁area	-3078
▁feet	-3079
▁support	-3080
▁turned	-3081
▁jo	-3082
▁đảo	-3083
cious	-3084
▁access	-3085
50	-3086
ills	-3087
▁Har	-3088
▁môn	-3089
▁value	-3090
ological	-3091
▁obvious	-3092
oud	-3093
rodu	-3094
▁chứa	-3095
▁nặng	-3096
▁break	-3097
▁famil	-3098
▁super	-3099
▁People	-3100
▁common	-3101
òi	-3102
▁Ai	-3103
▁hẳn	-3104
ially	-3105
▁Chúa	-3106
bor	-3107
reme	-3108
▁huỷ	-3109
▁mềm	-3110
▁vân	-3111
▁serv	-3112
▁taken	-3113
▁cannot	-3114
▁friend	-3115
▁pattern	-3116
▁Câu	-3117
▁key	-3118
▁chem	-3119
▁spent	-3120
▁communic	-3121
▁beginning	-3122
▁nóng	-3123
idence	-3124
▁prote	-3125
▁strong	-3126
▁perhaps	-3127
sh	-3128
▁17	-3129
inal	-3130
▁David	-3131
▁record	-3132
▁seeing	-3133
▁dậy	-3134
▁emb	-3135
▁mấy	-3136
eter	-3137
▁Rob	-3138
▁phù	-3139
▁Just	-3140
▁moving	-3141
▁Bắc	-3142
▁ple	-3143
ument	-3144
▁orig	-3145
▁longer	-3146
▁Wor	-3147
▁mạch	-3148
▁sent	-3149
ọt	-3150
ama	-3151
hor	-3152
▁De	-3153
▁cu	-3154
.000	-3155
▁Not	-3156
▁Công	-3157
▁chóng	-3158
▁leg	-3159
▁mùa	-3160
▁tru	-3161
▁ống	-3162
aught	-3163
▁mult	-3164
▁parts	-3165
▁quyển	-3166
▁leaders	-3167
▁vac	-3168
▁cháu	-3169
▁điển	-3170
rought	-3171
ịp	-3172
aged	-3173
▁Hiện	-3174
▁Trái	-3175
▁buộc	-3176
▁sóng	-3177
▁dưỡng	-3178
▁micro	-3179
▁thiệu	-3180
▁trùng	-3181
▁mẽ	-3182
▁eight	-3183
▁$	-3184
▁máu	-3185
fully	-3186
▁hạ	-3187
iếng	-3188
▁draw	-3189
▁khán	-3190
▁surv	-3191
▁perfect	-3192
▁quickly	-3193
▁wonderful	-3194
▁photograph	-3195
mb	-3196
▁hãi	-3197
▁film	-3198
▁linh	-3199
▁thảo	-3200
▁began	-3201
▁chủng	-3202
▁reach	-3203
▁cũ	-3204
▁sơ	-3205
▁đe	-3206
avor	-3207
ivers	-3208
ources	-3209
▁event	-3210
▁growth	-3211
ấc	-3212
▁dõi	-3213
▁rời	-3214
▁uống	-3215
▁includ	-3216
lt	-3217
▁cool	-3218
▁size	-3219
▁ground	-3220
▁Ad	-3221
▁Kỳ	-3222
▁tri	-3223
▁tảng	-3224
▁điên	-3225
▁Yes	-3226
▁tồi	-3227
▁terms	-3228
▁experiment	-3229
▁lộ	-3230
rent	-3231
▁Nhà	-3232
▁chờ	-3233
▁Iran	-3234
▁Yeah	-3235
▁loạn	-3236
go	-3237
▁Từ	-3238
▁ess	-3239
itect	-3240
▁carbon	-3241
▁parents	-3242
▁special	-3243
gn	-3244
▁cy	-3245
▁lầm	-3246
▁squ	-3247
▁đáp	-3248
▁requ	-3249
▁impact	-3250
ram	-3251
pid	-3252
▁buồn	-3253
▁lost	-3254
▁vững	-3255
bs	-3256
ley	-3257
▁ge	-3258
▁mắn	-3259
▁bang	-3260
▁pick	-3261
▁absolute	-3262
▁sửa	-3263
uth	-3264
▁civ	-3265
▁góp	-3266
▁win	-3267
▁Liệu	-3268
ipp	-3269
ales	-3270
▁box	-3271
▁tot	-3272
▁Afghanistan	-3273
▁cities	-3274
ife	-3275
eria	-3276
▁anal	-3277
▁write	-3278
▁thưởng	-3279
▁travel	-3280
cks	-3281
▁lồ	-3282
ried	-3283
▁198	-3284
▁Rất	-3285
▁Vào	-3286
▁Char	-3287
▁vers	-3288
▁tránh	-3289
▁tường	-3290
▁morning	-3291
▁oce	-3292
▁miễn	-3293
▁near	-3294
▁khoản	-3295
▁khổng	-3296
▁images	-3297
▁repres	-3298
hood	-3299
rael	-3300
▁Thứ	-3301
ution	-3302
▁green	-3303
▁tried	-3304
▁surpris	-3305
ards	-3306
▁ong	-3307
▁camera	-3308
ilar	-3309
▁đèn	-3310
ustain	-3311
▁knowledge	-3312
▁Mỗi	-3313
▁Our	-3314
▁lạnh	-3315
▁21	-3316
▁occ	-3317
▁virus	-3318
▁Ne	-3319
▁Man	-3320
▁tổn	-3321
▁đói	-3322
▁chàng	-3323
▁recogn	-3324
▁approach	-3325
▁mái	-3326
▁bene	-3327
▁bảng	-3328
▁World	-3329
▁Pa	-3330
ively	-3331
ites	-3332
▁insp	-3333
▁situ	-3334
cially	-3335
▁trắng	-3336
▁spread	-3337
▁architect	-3338
▁cơn	-3339
▁sum	-3340
▁tộc	-3341
▁lẫn	-3342
▁conv	-3343
▁feed	-3344
▁mảnh	-3345
▁poor	-3346
▁đỉnh	-3347
▁weeks	-3348
▁consum	-3349
▁average	-3350
▁ap	-3351
▁diệu	-3352
▁risk	-3353
▁English	-3354
▁measure	-3355
▁attention	-3356
▁tờ	-3357
▁enc	-3358
▁obs	-3359
▁dead	-3360
cu	-3361
ớm	-3362
▁Đông	-3363
▁sleep	-3364
▁online	-3365
▁feeling	-3366
▁reality	-3367
▁sitting	-3368
▁opportunity	-3369
lu	-3370
▁caus	-3371
▁dest	-3372
▁rele	-3373
▁Israel	-3374
▁wouldn	-3375
▁meaning	-3376
ny	-3377
ana	-3378
racy	-3379
▁núi	-3380
iction	-3381
▁phỏng	-3382
ression	-3383
▁either	-3384
▁whatever	-3385
ops	-3386
ateg	-3387
▁Ngày	-3388
eal	-3389
erm	-3390
▁đào	-3391
ators	-3392
▁tiểu	-3393
▁Đúng	-3394
▁ủng	-3395
▁changes	-3396
acy	-3397
▁bề	-3398
▁trì	-3399
▁tốn	-3400
ggest	-3401
izing	-3402
▁born	-3403
▁comb	-3404
▁brought	-3405
▁Bà	-3406
▁opt	-3407
anger	-3408
▁Chin	-3409
▁With	-3410
▁fast	-3411
▁foot	-3412
▁suggest	-3413
▁structure	-3414
ùa	-3415
asc	-3416
▁ấn	-3417
▁sho	-3418
▁trận	-3419
▁based	-3420
ibility	-3421
▁giving	-3422
▁economy	-3423
▁respons	-3424
▁interested	-3425
ror	-3426
▁Ken	-3427
▁hảo	-3428
ances	-3429
▁trồng	-3430
▁physical	-3431
ades	-3432
ored	-3433
▁Cam	-3434
▁yes	-3435
▁giỏi	-3436
▁quên	-3437
▁giọng	-3438
▁stage	-3439
▁By	-3440
▁áo	-3441
dden	-3442
▁ice	-3443
▁blue	-3444
▁extreme	-3445
▁growing	-3446
▁profess	-3447
ump	-3448
rist	-3449
▁bar	-3450
▁die	-3451
▁quảng	-3452
▁sudden	-3453
▁ability	-3454
ya	-3455
ico	-3456
▁ti	-3457
▁Hồi	-3458
▁kim	-3459
▁rơi	-3460
▁Right	-3461
▁favor	-3462
▁seems	-3463
▁voice	-3464
▁animal	-3465
▁developed	-3466
▁chạm	-3467
▁gone	-3468
▁hosp	-3469
▁tools	-3470
▁modern	-3471
▁fac	-3472
▁har	-3473
▁soft	-3474
▁books	-3475
▁known	-3476
▁stress	-3477
▁cỡ	-3478
ploy	-3479
▁Face	-3480
ains	-3481
omen	-3482
▁hon	-3483
▁khuẩn	-3484
chie	-3485
▁bật	-3486
▁cầm	-3487
▁eye	-3488
▁smart	-3489
▁realize	-3490
▁vốn	-3491
▁South	-3492
▁affect	-3493
▁univers	-3494
▁bền	-3495
▁mãi	-3496
▁oxy	-3497
▁phấn	-3498
▁priv	-3499
▁Chính	-3500
▁nghìn	-3501
▁đương	-3502
▁charact	-3503
urb	-3504
▁hi	-3505
ouch	-3506
rand	-3507
ught	-3508
ware	-3509
ister	-3510
▁dark	-3511
▁sánh	-3512
▁Cl	-3513
▁Im	-3514
▁hôn	-3515
▁sil	-3516
▁fire	-3517
▁redu	-3518
▁text	-3519
▁tiềm	-3520
▁press	-3521
▁developing	-3522
▁Pr	-3523
▁numbers	-3524
▁24	-3525
▁chấm	-3526
▁crit	-3527
▁pull	-3528
▁issue	-3529
▁lương	-3530
▁wrote	-3531
▁challenge	-3532
ev	-3533
of	-3534
▁Don	-3535
▁Năm	-3536
▁Đại	-3537
▁khoá	-3538
▁nice	-3539
▁vàng	-3540
▁chiếm	-3541
▁thank	-3542
▁invent	-3543
▁scientists	-3544
lict	-3545
▁hot	-3546
▁mời	-3547
▁main	-3548
▁webs	-3549
▁hoảng	-3550
▁specif	-3551
▁climate	-3552
▁running	-3553
▁incredible	-3554
ero	-3555
▁500	-3556
▁chó	-3557
▁khích	-3558
▁Facebook	-3559
▁understanding	-3560
ID	-3561
iti	-3562
▁vợ	-3563
ique	-3564
▁hiển	-3565
▁Chinese	-3566
eed	-3567
▁Bl	-3568
▁bữa	-3569
▁nắm	-3570
▁pur	-3571
▁path	-3572
▁poll	-3573
▁rich	-3574
▁humans	-3575
▁creating	-3576
▁starting	-3577
ein	-3578
▁phối	-3579
▁bottom	-3580
▁sustain	-3581
▁tradition	-3582
par	-3583
unt	-3584
▁tw	-3585
▁vỡ	-3586
▁hor	-3587
▁lửa	-3588
▁làng	-3589
▁nghỉ	-3590
▁save	-3591
▁civil	-3592
▁audience	-3593
▁road	-3594
▁thịt	-3595
▁điệu	-3596
▁ngừng	-3597
▁xương	-3598
bit	-3599
eth	-3600
ted	-3601
▁vĩ	-3602
▁ghế	-3603
▁hào	-3604
▁aren	-3605
▁tách	-3606
ensive	-3607
▁girls	-3608
▁millions	-3609
▁Sch	-3610
▁playing	-3611
yn	-3612
ặm	-3613
▁hổ	-3614
▁đừng	-3615
erence	-3616
▁solution	-3617
yl	-3618
ove	-3619
▁nổ	-3620
▁Bill	-3621
▁quần	-3622
▁chuỗi	-3623
▁color	-3624
▁dường	-3625
▁scale	-3626
▁writing	-3627
▁rút	-3628
▁tele	-3629
▁benef	-3630
▁neigh	-3631
▁convers	-3632
▁Ira	-3633
▁lay	-3634
▁camp	-3635
▁chảy	-3636
▁khẩu	-3637
▁kịch	-3638
▁alone	-3639
▁literally	-3640
▁197	-3641
▁sót	-3642
▁Mich	-3643
▁knows	-3644
▁relig	-3645
pecially	-3646
ug	-3647
▁Sc	-3648
port	-3649
▁biên	-3650
▁slow	-3651
▁đằng	-3652
▁mov	-3653
▁blog	-3654
▁areas	-3655
▁email	-3656
▁anyone	-3657
anda	-3658
idge	-3659
▁rul	-3660
▁sớm	-3661
iforn	-3662
▁Trên	-3663
▁Where	-3664
▁blood	-3665
▁telling	-3666
▁Tw	-3667
▁sn	-3668
ring	-3669
▁fem	-3670
▁gió	-3671
▁loạt	-3672
▁gives	-3673
▁guess	-3674
▁thoát	-3675
▁concept	-3676
▁Californ	-3677
ada	-3678
ala	-3679
▁games	-3680
▁protein	-3681
▁innovation	-3682
iet	-3683
ingly	-3684
▁chậm	-3685
▁khuy	-3686
▁vill	-3687
▁wall	-3688
▁development	-3689
▁dĩ	-3690
chan	-3691
▁khứ	-3692
▁chồng	-3693
▁polic	-3694
▁truth	-3695
▁worth	-3696
▁predict	-3697
▁experien	-3698
ãn	-3699
▁rate	-3700
▁phone	-3701
▁asking	-3702
▁California	-3703
ẹn	-3704
▁Ồ	-3705
ude	-3706
▁Mc	-3707
▁tắt	-3708
▁prom	-3709
▁soon	-3710
▁sạch	-3711
▁Trước	-3712
▁solve	-3713
ologies	-3714
▁forward	-3715
▁hundreds	-3716
▁patients	-3717
▁tàn	-3718
▁depe	-3719
▁sounds	-3720
▁Mex	-3721
gress	-3722
▁patient	-3723
umb	-3724
▁Vấn	-3725
obody	-3726
▁white	-3727
▁showed	-3728
ứt	-3729
▁fa	-3730
▁peace	-3731
▁theory	-3732
▁transform	-3733
▁discovered	-3734
son	-3735
▁bè	-3736
irth	-3737
▁gợi	-3738
▁lặp	-3739
▁giấc	-3740
▁nghề	-3741
▁suff	-3742
▁suất	-3743
por	-3744
▁er	-3745
▁cop	-3746
▁imm	-3747
ellig	-3748
▁baby	-3749
▁avail	-3750
▁force	-3751
▁normal	-3752
arr	-3753
ham	-3754
▁mũ	-3755
illi	-3756
▁Hay	-3757
▁emp	-3758
▁quỹ	-3759
usion	-3760
▁peri	-3761
▁repl	-3762
▁vacc	-3763
ươi	-3764
ựng	-3765
▁ast	-3766
▁bur	-3767
▁vol	-3768
ondon	-3769
▁trust	-3770
entially	-3771
▁current	-3772
▁okay	-3773
▁type	-3774
▁center	-3775
▁produce	-3776
▁pictures	-3777
▁especially	-3778
▁generation	-3779
ói	-3780
▁Dan	-3781
▁Cách	-3782
▁London	-3783
▁subject	-3784
▁industry	-3785
▁represent	-3786
sc	-3787
ray	-3788
▁lỗ	-3789
▁lối	-3790
▁son	-3791
▁trưng	-3792
▁fundam	-3793
▁intern	-3794
▁movement	-3795
▁phê	-3796
▁ngại	-3797
▁Chris	-3798
▁plant	-3799
▁similar	-3800
▁incredibly	-3801
▁iP	-3802
▁Par	-3803
▁nhé	-3804
▁tán	-3805
▁ocean	-3806
▁Christ	-3807
▁talked	-3808
▁materials	-3809
▁potential	-3810
yond	-3811
▁Com	-3812
▁bed	-3813
▁túi	-3814
▁Iraq	-3815
▁sông	-3816
▁trại	-3817
▁serious	-3818
▁changing	-3819
▁Su	-3820
▁trữ	-3821
▁cars	-3822
▁compet	-3823
▁website	-3824
▁teachers	-3825
▁relationship	-3826
IDS	-3827
▁Ba	-3828
▁Ha	-3829
▁Col	-3830
▁est	-3831
phere	-3832
▁stra	-3833
▁touch	-3834
▁Ab	-3835
abor	-3836
ived	-3837
▁dặm	-3838
▁Braz	-3839
▁surface	-3840
▁Cám	-3841
▁Ste	-3842
▁cra	-3843
▁lea	-3844
imens	-3845
stein	-3846
▁kiệm	-3847
▁thước	-3848
▁Brazil	-3849
▁Who	-3850
▁viễn	-3851
▁haven	-3852
▁nguyện	-3853
▁involved	-3854
▁resources	-3855
▁absolutely	-3856
▁0	-3857
ask	-3858
ext	-3859
▁ang	-3860
▁đăng	-3861
▁chance	-3862
▁conflict	-3863
lex	-3864
oor	-3865
▁Nói	-3866
▁ball	-3867
isions	-3868
▁achie	-3869
▁defin	-3870
▁table	-3871
▁track	-3872
▁issues	-3873
ify	-3874
let	-3875
▁cờ	-3876
ences	-3877
▁hang	-3878
▁evolution	-3879
ster	-3880
ouble	-3881
▁West	-3882
▁sell	-3883
assion	-3884
▁shape	-3885
ilities	-3886
▁journey	-3887
▁happiness	-3888
▁né	-3889
▁sỹ	-3890
▁div	-3891
▁hit	-3892
▁lif	-3893
▁Đầu	-3894
▁period	-3895
ech	-3896
▁Việc	-3897
▁quang	-3898
▁cà	-3899
like	-3900
▁300	-3901
▁Kho	-3902
▁bơi	-3903
▁AIDS	-3904
▁Inst	-3905
▁nâng	-3906
▁đuổi	-3907
▁among	-3908
▁kháng	-3909
▁danger	-3910
▁detail	-3911
▁groups	-3912
▁function	-3913
▁bụ	-3914
▁Pro	-3915
▁ult	-3916
▁Geor	-3917
▁Paul	-3918
▁rece	-3919
▁tiny	-3920
▁beyond	-3921
▁visual	-3922
▁general	-3923
▁schools	-3924
▁intellig	-3925
▁available	-3926
ìa	-3927
pre	-3928
▁Sw	-3929
▁vỏ	-3930
head	-3931
▁flu	-3932
▁kém	-3933
▁sat	-3934
▁flow	-3935
▁birth	-3936
▁necess	-3937
▁technologies	-3938
yr	-3939
▁fur	-3940
▁ghép	-3941
▁nhắn	-3942
▁send	-3943
▁stru	-3944
▁message	-3945
ged	-3946
ưỡi	-3947
▁pa	-3948
▁prin	-3949
▁thăm	-3950
▁choice	-3951
▁street	-3952
▁democracy	-3953
▁situation	-3954
ara	-3955
ges	-3956
oon	-3957
▁1.	-3958
ival	-3959
roll	-3960
▁sốt	-3961
▁meth	-3962
▁sold	-3963
▁miles	-3964
▁phiên	-3965
▁rules	-3966
▁vision	-3967
▁cú	-3968
▁thở	-3969
▁clos	-3970
▁device	-3971
▁electric	-3972
▁recently	-3973
rab	-3974
▁pu	-3975
▁rẻ	-3976
▁safe	-3977
▁breat	-3978
▁react	-3979
▁slide	-3980
▁projects	-3981
iar	-3982
eles	-3983
ency	-3984
itter	-3985
▁Brit	-3986
▁thảm	-3987
▁wish	-3988
▁medic	-3989
▁khoảnh	-3990
ãng	-3991
▁Me	-3992
▁nhật	-3993
▁tàng	-3994
▁block	-3995
ĩa	-3996
▁nỗ	-3997
▁tụ	-3998
▁Thu	-3999
▁vết	-4000
oring	-4001
▁craz	-4002
▁fair	-4003
▁lặng	-4004
▁tend	-4005
ishing	-4006
▁cause	-4007
▁thoả	-4008
▁attack	-4009
▁account	-4010
▁digital	-4011
▁revolution	-4012
▁individuals	-4013
ox	-4014
une	-4015
▁bọn	-4016
▁neg	-4017
▁nhẹ	-4018
▁sáu	-4019
antly	-4020
light	-4021
odies	-4022
▁hoang	-4023
▁instit	-4024
▁likely	-4025
▁becomes	-4026
▁Sm	-4027
▁lọc	-4028
▁map	-4029
▁sea	-4030
▁Nhật	-4031
▁tells	-4032
▁office	-4033
▁putting	-4034
SA	-4035
zz	-4036
▁Là	-4037
apan	-4038
cuss	-4039
more	-4040
▁tròn	-4041
▁xoay	-4042
aur	-4043
str	-4044
▁bờ	-4045
edom	-4046
▁Was	-4047
▁boy	-4048
▁First	-4049
▁activ	-4050
▁cross	-4051
▁drive	-4052
▁trống	-4053
▁bigger	-4054
▁memory	-4055
▁walking	-4056
▁196	-4057
▁War	-4058
▁drop	-4059
▁hùng	-4060
▁After	-4061
▁Japan	-4062
▁terri	-4063
▁passion	-4064
ping	-4065
▁San	-4066
▁died	-4067
▁điệp	-4068
▁Mexico	-4069
▁creative	-4070
▁evidence	-4071
▁Lu	-4072
fort	-4073
▁Hai	-4074
▁arm	-4075
arily	-4076
▁Maybe	-4077
▁mechan	-4078
▁reasons	-4079
▁designed	-4080
agn	-4081
ned	-4082
view	-4083
cient	-4084
▁East	-4085
▁except	-4086
▁medical	-4087
eel	-4088
▁Of	-4089
▁ưu	-4090
itiz	-4091
▁mùi	-4092
ously	-4093
▁Look	-4094
▁sand	-4095
▁đẳng	-4096
▁action	-4097
▁search	-4098
▁secret	-4099
▁results	-4100
ford	-4101
▁mob	-4102
▁voi	-4103
▁ngẫu	-4104
▁North	-4105
▁compassion	-4106
fer	-4107
▁doạ	-4108
▁lục	-4109
▁đam	-4110
▁improve	-4111
▁bò	-4112
▁đế	-4113
▁Are	-4114
▁deg	-4115
▁Đất	-4116
▁cris	-4117
▁drug	-4118
▁grad	-4119
▁lành	-4120
▁emerg	-4121
▁towards	-4122
▁Bộ	-4123
akes	-4124
▁Lúc	-4125
▁tar	-4126
▁nine	-4127
▁phil	-4128
▁aware	-4129
▁blind	-4130
▁clean	-4131
▁crazy	-4132
▁lived	-4133
▁everywhere	-4134
ủi	-4135
▁tô	-4136
medi	-4137
ngth	-4138
▁led	-4139
▁lose	-4140
▁ready	-4141
▁favorite	-4142
▁conscious	-4143
▁Á	-4144
▁Ả	-4145
cis	-4146
men	-4147
▁code	-4148
▁prim	-4149
▁rock	-4150
▁basic	-4151
▁starts	-4152
▁teacher	-4153
▁particip	-4154
▁software	-4155
DP	-4156
lly	-4157
oms	-4158
▁Bản	-4159
▁bird	-4160
▁cart	-4161
▁lính	-4162
estern	-4163
▁thuận	-4164
olutions	-4165
urt	-4166
ustr	-4167
▁400	-4168
▁mis	-4169
▁unf	-4170
iding	-4171
ished	-4172
▁Theo	-4173
▁shif	-4174
▁thác	-4175
▁thừa	-4176
▁đựng	-4177
▁certainly	-4178
oles	-4179
onse	-4180
▁rác	-4181
▁bact	-4182
▁minds	-4183
▁waste	-4184
▁taught	-4185
▁biggest	-4186
▁examples	-4187
▁scientific	-4188
▁Ngay	-4189
▁onto	-4190
▁đoàn	-4191
▁trial	-4192
▁Canada	-4193
oo	-4194
ips	-4195
rage	-4196
▁cấy	-4197
▁tan	-4198
oming	-4199
▁thuỷ	-4200
▁moved	-4201
▁print	-4202
▁transl	-4203
▁further	-4204
▁obviously	-4205
ớt	-4206
imb	-4207
▁Pl	-4208
edia	-4209
▁Act	-4210
▁GDP	-4211
▁lau	-4212
▁Cuối	-4213
others	-4214
▁citiz	-4215
▁moral	-4216
▁sever	-4217
▁trích	-4218
▁screen	-4219
izations	-4220
▁introdu	-4221
▁quality	-4222
▁extraord	-4223
▁progress	-4224
▁violence	-4225
▁computers	-4226
▁particularly	-4227
nal	-4228
▁AD	-4229
▁Ed	-4230
▁encou	-4231
▁meant	-4232
▁nhuận	-4233
ruction	-4234
▁content	-4235
▁context	-4236
▁showing	-4237
▁neighbor	-4238
ett	-4239
▁Je	-4240
▁din	-4241
urity	-4242
▁chặt	-4243
▁store	-4244
▁thang	-4245
▁faster	-4246
▁communities	-4247
ky	-4248
▁deb	-4249
▁huy	-4250
▁họp	-4251
▁đạp	-4252
ground	-4253
▁apart	-4254
▁giảng	-4255
▁graph	-4256
▁choose	-4257
iversity	-4258
come	-4259
ires	-4260
▁report	-4261
▁threat	-4262
▁consider	-4263
▁national	-4264
put	-4265
▁Pal	-4266
▁dam	-4267
▁Đức	-4268
▁lược	-4269
▁Kenya	-4270
▁miếng	-4271
▁mount	-4272
▁expert	-4273
▁indeed	-4274
lin	-4275
olf	-4276
▁Cậu	-4277
▁adm	-4278
▁door	-4279
▁lãng	-4280
▁radio	-4281
▁author	-4282
▁region	-4283
▁response	-4284
▁decisions	-4285
ims	-4286
▁af	-4287
ucle	-4288
▁Tod	-4289
▁cãi	-4290
▁lắp	-4291
ising	-4292
▁nhựa	-4293
▁cloud	-4294
▁solar	-4295
▁several	-4296
▁student	-4297
▁hospital	-4298
▁Ob	-4299
nces	-4300
ured	-4301
▁150	-4302
▁Nào	-4303
▁log	-4304
▁tật	-4305
▁Even	-4306
▁chặn	-4307
▁Đừng	-4308
▁drugs	-4309
▁magic	-4310
▁forest	-4311
▁totally	-4312
ườn	-4313
▁ec	-4314
▁ko	-4315
▁giám	-4316
▁khấu	-4317
ressed	-4318
▁brains	-4319
▁Mà	-4320
ised	-4321
ander	-4322
▁Cuộc	-4323
▁fish	-4324
▁ngoái	-4325
▁worse	-4326
▁societ	-4327
▁connected	-4328
dom	-4329
▁ce	-4330
▁lễ	-4331
▁Most	-4332
▁hack	-4333
▁hung	-4334
▁mừng	-4335
▁thai	-4336
▁remark	-4337
▁positive	-4338
éo	-4339
ald	-4340
ging	-4341
oint	-4342
▁Ben	-4343
▁đòi	-4344
▁Fran	-4345
▁Hoặc	-4346
▁chào	-4347
▁ngang	-4348
▁strateg	-4349
rest	-4350
▁yên	-4351
▁fant	-4352
▁thận	-4353
▁virt	-4354
▁assum	-4355
▁huống	-4356
▁stick	-4357
▁nobody	-4358
▁prison	-4359
▁collabor	-4360
▁dom	-4361
▁fix	-4362
▁mại	-4363
▁pin	-4364
▁swe	-4365
conds	-4366
ified	-4367
▁Arab	-4368
▁Cũng	-4369
▁link	-4370
▁rain	-4371
▁thao	-4372
▁wait	-4373
▁wants	-4374
▁immedi	-4375
▁Twitter	-4376
▁watching	-4377
bu	-4378
▁Ma	-4379
▁Per	-4380
▁mây	-4381
atory	-4382
verty	-4383
▁diệt	-4384
▁grew	-4385
▁jobs	-4386
▁mine	-4387
▁carry	-4388
▁hương	-4389
▁shown	-4390
▁mental	-4391
▁chemical	-4392
how	-4393
▁sổ	-4394
ffic	-4395
▁cản	-4396
▁2000	-4397
▁adult	-4398
▁influ	-4399
▁notice	-4400
▁allowed	-4401
▁training	-4402
pr	-4403
▁dị	-4404
▁Ein	-4405
▁chép	-4406
▁corn	-4407
▁push	-4408
▁spir	-4409
▁detect	-4410
▁return	-4411
▁explore	-4412
▁perspect	-4413
ares	-4414
icle	-4415
▁Ang	-4416
▁cát	-4417
▁sợi	-4418
▁Thay	-4419
▁skin	-4420
▁vong	-4421
▁đống	-4422
▁finan	-4423
aughter	-4424
▁bodies	-4425
▁infect	-4426
▁method	-4427
▁village	-4428
▁decision	-4429
▁including	-4430
▁oh	-4431
▁vú	-4432
▁kil	-4433
▁đùa	-4434
▁tràn	-4435
▁multi	-4436
▁nucle	-4437
▁trees	-4438
▁appear	-4439
▁discuss	-4440
▁objects	-4441
▁studies	-4442
▁Einstein	-4443
▁continue	-4444
▁position	-4445
▁suddenly	-4446
▁character	-4447
soci	-4448
▁cặp	-4449
▁san	-4450
agine	-4451
▁Bang	-4452
▁fasc	-4453
▁Chẳng	-4454
▁movie	-4455
ologist	-4456
▁anybody	-4457
IT	-4458
ớn	-4459
col	-4460
ief	-4461
▁CO	-4462
▁tỏ	-4463
▁ám	-4464
▁cám	-4465
▁hop	-4466
▁thù	-4467
▁bank	-4468
▁farm	-4469
▁fill	-4470
▁named	-4471
▁freedom	-4472
▁largest	-4473
▁activity	-4474
▁buildings	-4475
ids	-4476
crib	-4477
▁mập	-4478
▁pan	-4479
itary	-4480
ought	-4481
▁cứng	-4482
▁fine	-4483
▁nhằm	-4484
▁thấu	-4485
▁tuyên	-4486
▁eventually	-4487
ica	-4488
inct	-4489
▁Nig	-4490
▁Đối	-4491
itten	-4492
▁wife	-4493
▁Nhiều	-4494
▁phiếu	-4495
▁separ	-4496
▁crisis	-4497
▁employ	-4498
▁temper	-4499
▁Washing	-4500
▁poverty	-4501
erve	-4502
▁ign	-4503
▁mực	-4504
▁nan	-4505
▁syn	-4506
ellow	-4507
▁truly	-4508
▁minute	-4509
oke	-4510
pro	-4511
▁Bu	-4512
▁Hy	-4513
▁khía	-4514
▁luck	-4515
▁nhịp	-4516
▁súng	-4517
vision	-4518
▁forms	-4519
▁artist	-4520
▁income	-4521
▁killed	-4522
▁conditions	-4523
▁traditional	-4524
▁conversation	-4525
oll	-4526
ners	-4527
rial	-4528
▁ADN	-4529
▁Bar	-4530
▁bắn	-4531
▁bối	-4532
▁sụp	-4533
▁hiếm	-4534
▁trào	-4535
istics	-4536
▁ended	-4537
▁plants	-4538
▁source	-4539
▁anymore	-4540
▁excited	-4541
▁specific	-4542
▁supposed	-4543
▁Washington	-4544
oub	-4545
win	-4546
▁1,	-4547
▁La	-4548
cape	-4549
cise	-4550
▁gas	-4551
eless	-4552
▁chán	-4553
▁circ	-4554
▁cong	-4555
▁tiêm	-4556
▁Today	-4557
▁speed	-4558
▁George	-4559
▁products	-4560
▁signific	-4561
▁extremely	-4562
ha	-4563
for	-4564
▁hà	-4565
▁tá	-4566
ribut	-4567
▁Cong	-4568
▁clin	-4569
▁mist	-4570
▁pack	-4571
▁labor	-4572
osphere	-4573
▁effort	-4574
▁robots	-4575
▁solutions	-4576
▁Dù	-4577
▁Mẹ	-4578
vert	-4579
▁Any	-4580
▁hig	-4581
▁móc	-4582
▁accept	-4583
▁provide	-4584
▁politics	-4585
ze	-4586
ậc	-4587
rap	-4588
▁hè	-4589
pped	-4590
sect	-4591
▁Isl	-4592
▁kêu	-4593
▁lừa	-4594
▁Rich	-4595
▁capt	-4596
▁cook	-4597
▁goal	-4598
▁kept	-4599
▁ngọn	-4600
▁role	-4601
▁alive	-4602
▁khung	-4603
▁sorts	-4604
▁allows	-4605
▁disapp	-4606
▁points	-4607
▁skills	-4608
▁college	-4609
▁finding	-4610
▁exciting	-4611
amm	-4612
joy	-4613
▁Fl	-4614
▁óc	-4615
▁Like	-4616
▁Pháp	-4617
▁liền	-4618
▁Which	-4619
▁cases	-4620
▁earli	-4621
ossible	-4622
▁complic	-4623
ael	-4624
osh	-4625
pan	-4626
▁béo	-4627
ulate	-4628
useum	-4629
▁Bằng	-4630
▁triết	-4631
▁higher	-4632
▁African	-4633
▁publish	-4634
▁reading	-4635
▁listening	-4636
▁societies	-4637
▁extraordinary	-4638
ua	-4639
èm	-4640
uss	-4641
emic	-4642
▁côn	-4643
▁dối	-4644
▁jud	-4645
▁đua	-4646
▁above	-4647
▁hoàng	-4648
▁manag	-4649
▁mathem	-4650
▁series	-4651
▁Charles	-4652
▁service	-4653
▁thousand	-4654
ớp	-4655
▁gỗ	-4656
gery	-4657
▁Big	-4658
▁ann	-4659
▁cục	-4660
▁thờ	-4661
▁Your	-4662
▁late	-4663
▁wild	-4664
▁doctor	-4665
▁princi	-4666
▁weight	-4667
▁University	-4668
ulf	-4669
ượu	-4670
▁Về	-4671
▁Dar	-4672
▁cat	-4673
▁Phải	-4674
▁purp	-4675
▁afford	-4676
▁fascin	-4677
▁models	-4678
▁strugg	-4679
▁families	-4680
▁successful	-4681
▁bổ	-4682
▁tí	-4683
iced	-4684
▁Liên	-4685
▁Thom	-4686
▁căng	-4687
▁khảo	-4688
▁thầy	-4689
▁bunch	-4690
▁loved	-4691
▁smell	-4692
▁calcul	-4693
▁determ	-4694
▁Imagine	-4695
▁fundamental	-4696
aly	-4697
ube	-4698
▁kí	-4699
hips	-4700
▁Ger	-4701
▁bab	-4702
▁bal	-4703
▁bậc	-4704
▁doc	-4705
▁hối	-4706
▁mạc	-4707
▁sus	-4708
▁đập	-4709
▁Thái	-4710
▁thoải	-4711
▁policy	-4712
▁Gu	-4713
▁lũ	-4714
hone	-4715
▁mưa	-4716
▁nấm	-4717
cules	-4718
▁lands	-4719
▁concer	-4720
▁ngưỡng	-4721
▁slight	-4722
▁Western	-4723
▁capital	-4724
▁neurons	-4725
▁anywhere	-4726
▁machines	-4727
▁expensive	-4728
▁mỏ	-4729
▁MIT	-4730
▁Wik	-4731
▁Adam	-4732
▁Phần	-4733
▁chốt	-4734
▁familiar	-4735
▁Americans	-4736
▁impossible	-4737
▁ác	-4738
aking	-4739
▁check	-4740
▁enjoy	-4741
▁critical	-4742
▁mét	-4743
▁sou	-4744
▁táo	-4745
▁chối	-4746
▁huấn	-4747
▁effic	-4748
▁funny	-4749
▁lower	-4750
▁thuyền	-4751
▁colleag	-4752
▁plastic	-4753
▁straight	-4754
▁cry	-4755
▁lad	-4756
erson	-4757
▁rand	-4758
▁swim	-4759
iation	-4760
▁demon	-4761
▁types	-4762
▁larger	-4763
▁Francis	-4764
▁doctors	-4765
▁genetic	-4766
▁somewhere	-4767
off	-4768
unk	-4769
▁Ag	-4770
▁El	-4771
▁Mus	-4772
▁hỗn	-4773
aries	-4774
ounds	-4775
▁2008	-4776
▁Aust	-4777
▁City	-4778
▁roll	-4779
▁rượu	-4780
▁trầm	-4781
▁nhũng	-4782
▁actual	-4783
▁famous	-4784
▁pieces	-4785
▁continu	-4786
▁reflect	-4787
▁usually	-4788
▁patterns	-4789
▁recognize	-4790
30	-4791
ays	-4792
▁mir	-4793
▁rid	-4794
ained	-4795
▁cold	-4796
▁upon	-4797
▁board	-4798
▁glass	-4799
▁raise	-4800
▁talks	-4801
▁philos	-4802
▁deliver	-4803
▁respect	-4804
▁becoming	-4805
▁treatment	-4806
egr	-4807
▁mì	-4808
back	-4809
word	-4810
▁Bro	-4811
▁Jul	-4812
▁vâng	-4813
▁earth	-4814
▁Michael	-4815
▁describ	-4816
▁greater	-4817
▁seconds	-4818
▁perspective	-4819
PS	-4820
oid	-4821
▁Sẽ	-4822
iber	-4823
▁Tom	-4824
▁bảy	-4825
attle	-4826
urban	-4827
▁Phil	-4828
▁ghét	-4829
▁magn	-4830
▁Those	-4831
▁launch	-4832
▁citizens	-4833
bur	-4834
rum	-4835
uit	-4836
▁45	-4837
▁et	-4838
tend	-4839
▁fra	-4840
▁biện	-4841
▁site	-4842
▁descri	-4843
▁khuyến	-4844
▁rights	-4845
▁saving	-4846
▁unique	-4847
▁somehow	-4848
▁strange	-4849
▁teaching	-4850
amp	-4851
▁ly	-4852
▁ức	-4853
▁hyd	-4854
▁Thuỵ	-4855
▁rise	-4856
▁tiss	-4857
▁genes	-4858
▁shark	-4859
akistan	-4860
rection	-4861
▁demonstr	-4862
▁effective	-4863
▁molecules	-4864
ey	-4865
ball	-4866
▁nút	-4867
▁ran	-4868
▁đắt	-4869
▁cháy	-4870
▁legs	-4871
▁truy	-4872
▁beauty	-4873
▁random	-4874
▁spirit	-4875
▁smaller	-4876
▁institut	-4877
▁financial	-4878
▁complicated	-4879
na	-4880
key	-4881
yle	-4882
▁Hôm	-4883
▁eth	-4884
▁sam	-4885
▁ngón	-4886
▁port	-4887
▁shock	-4888
▁female	-4889
▁shared	-4890
▁version	-4891
▁written	-4892
▁painting	-4893
▁ạ	-4894
igr	-4895
▁35	-4896
▁Ex	-4897
amic	-4898
▁hắn	-4899
▁Mark	-4900
▁page	-4901
▁phán	-4902
ologists	-4903
▁increas	-4904
▁respond	-4905
▁security	-4906
ortunately	-4907
▁En	-4908
▁Te	-4909
▁cỏ	-4910
fact	-4911
▁hồn	-4912
▁thọ	-4913
ently	-4914
▁gene	-4915
▁hous	-4916
▁tỉnh	-4917
▁uses	-4918
▁xứng	-4919
▁Somet	-4920
▁optim	-4921
▁throw	-4922
▁Thomas	-4923
▁Pakistan	-4924
▁standing	-4925
ctor	-4926
▁Two	-4927
▁costs	-4928
itation	-4929
▁associ	-4930
▁babies	-4931
▁decades	-4932
▁discover	-4933
▁increase	-4934
▁organizations	-4935
&;	-4936
xi	-4937
ami	-4938
▁&;	-4939
lebr	-4940
mend	-4941
▁mạo	-4942
▁sym	-4943
▁túc	-4944
epend	-4945
iling	-4946
▁prep	-4947
▁corru	-4948
▁thiểu	-4949
▁trick	-4950
▁levels	-4951
▁express	-4952
▁healthy	-4953
▁bacteria	-4954
▁humanity	-4955
▁connection	-4956
▁organization	-4957
ợt	-4958
time	-4959
▁gọn	-4960
▁mũi	-4961
▁sal	-4962
▁săn	-4963
▁thả	-4964
▁Nhìn	-4965
▁star	-4966
▁achieve	-4967
▁willing	-4968
▁essentially	-4969
za	-4970
▁App	-4971
▁GPS	-4972
▁Sao	-4973
▁cụt	-4974
▁xoá	-4975
acity	-4976
ining	-4977
iring	-4978
thern	-4979
▁card	-4980
▁Frank	-4981
▁bread	-4982
▁older	-4983
▁trứng	-4984
▁beings	-4985
▁dangerous	-4986
20	-4987
bb	-4988
ef	-4989
▁à	-4990
▁cỗ	-4991
aign	-4992
verse	-4993
▁Talk	-4994
▁bông	-4995
▁dinh	-4996
▁giận	-4997
▁phen	-4998
▁forth	-4999
▁thạch	-5000
▁speech	-5001
▁practice	-5002
ela	-5003
rom	-5004
▁PM	-5005
ffee	-5006
itor	-5007
▁Hầu	-5008
▁alg	-5009
▁inh	-5010
▁mix	-5011
orrow	-5012
ulner	-5013
▁desp	-5014
▁yeah	-5015
▁khiếp	-5016
▁oppos	-5017
▁remind	-5018
atically	-5019
▁remarkable	-5020
▁throughout	-5021
▁engineering	-5022
▁immediately	-5023
RI	-5024
oh	-5025
▁Mặt	-5026
▁dày	-5027
▁pen	-5028
▁rủi	-5029
▁From	-5030
▁hero	-5031
▁khát	-5032
▁thuê	-5033
▁thiệp	-5034
▁comfort	-5035
▁surgery	-5036
▁creativity	-5037
▁electricity	-5038
▁architecture	-5039
oty	-5040
owd	-5041
▁Dr	-5042
▁nấu	-5043
▁tia	-5044
▁đắn	-5045
istry	-5046
▁cust	-5047
▁xong	-5048
cience	-5049
▁Green	-5050
▁final	-5051
▁belief	-5052
▁mobile	-5053
▁biology	-5054
▁fantastic	-5055
▁NA	-5056
▁mò	-5057
▁mộ	-5058
lant	-5059
▁cột	-5060
▁lộn	-5061
▁mai	-5062
prene	-5063
▁hước	-5064
▁stri	-5065
▁teen	-5066
ission	-5067
reprene	-5068
▁nation	-5069
▁surprising	-5070
▁environmental	-5071
▁kẹ	-5072
oper	-5073
▁His	-5074
▁bột	-5075
▁dad	-5076
▁fit	-5077
itude	-5078
▁Cent	-5079
▁binh	-5080
▁hole	-5081
▁park	-5082
▁scan	-5083
▁cover	-5084
▁giành	-5085
▁thánh	-5086
▁Robert	-5087
▁honest	-5088
▁police	-5089
▁evolved	-5090
▁mention	-5091
▁electron	-5092
▁standard	-5093
▁television	-5094
ùi	-5095
ola	-5096
rig	-5097
▁Los	-5098
▁bãi	-5099
▁mal	-5100
▁ngũ	-5101
▁tóc	-5102
▁đốc	-5103
▁Haiti	-5104
▁chair	-5105
▁diagn	-5106
▁match	-5107
▁offic	-5108
▁stars	-5109
▁urban	-5110
ception	-5111
▁truyện	-5112
▁clearly	-5113
▁earlier	-5114
▁propert	-5115
▁following	-5116
▁interview	-5117
▁production	-5118
ướt	-5119
berg	-5120
resh	-5121
sequ	-5122
▁Lan	-5123
▁phó	-5124
▁xưa	-5125
▁đài	-5126
▁đốt	-5127
▁2010	-5128
▁chẩn	-5129
▁10,000	-5130
▁please	-5131
▁walked	-5132
▁address	-5133
▁services	-5134
▁challenges	-5135
▁international	-5136
ỗng	-5137
▁Đã	-5138
iệng	-5139
▁Gia	-5140
▁Sim	-5141
▁dọc	-5142
▁apply	-5143
▁price	-5144
▁spect	-5145
▁thuần	-5146
▁celebr	-5147
▁75	-5148
▁Di	-5149
rian	-5150
▁mát	-5151
▁nut	-5152
▁veh	-5153
▁răng	-5154
▁rưỡi	-5155
▁sequ	-5156
▁vict	-5157
▁huyết	-5158
▁trade	-5159
▁career	-5160
▁helped	-5161
▁useful	-5162
▁Another	-5163
▁Nigeria	-5164
▁massive	-5165
▁private	-5166
▁waiting	-5167
▁military	-5168
▁condition	-5169
▁emotional	-5170
▁understood	-5171
pes	-5172
▁nơ	-5173
ener	-5174
▁bạc	-5175
▁tur	-5176
board	-5177
rench	-5178
▁miền	-5179
▁race	-5180
▁German	-5181
▁popular	-5182
▁performance	-5183
my	-5184
ýt	-5185
udd	-5186
reet	-5187
▁sca	-5188
▁Harv	-5189
though	-5190
▁autom	-5191
▁chừng	-5192
▁whose	-5193
imately	-5194
▁coffee	-5195
▁sexual	-5196
▁himself	-5197
▁intelligence	-5198
fl	-5199
▁bó	-5200
▁ném	-5201
▁xâm	-5202
▁đĩa	-5203
arian	-5204
▁hiến	-5205
▁nhấn	-5206
▁task	-5207
▁tặng	-5208
▁James	-5209
▁gương	-5210
▁Indian	-5211
▁histor	-5212
▁spaces	-5213
▁prevent	-5214
▁phenomen	-5215
▁surround	-5216
▁classroom	-5217
▁therefore	-5218
▁experiments	-5219
▁neighborhood	-5220
rim	-5221
▁2.	-5222
▁ấm	-5223
nter	-5224
▁cốt	-5225
▁fold	-5226
▁ngài	-5227
▁vườn	-5228
ashion	-5229
▁choices	-5230
▁medicine	-5231
▁slightly	-5232
▁speaking	-5233
▁entreprene	-5234
edd	-5235
▁ir	-5236
▁xạ	-5237
rees	-5238
wood	-5239
▁Ban	-5240
▁Sam	-5241
▁bra	-5242
▁dog	-5243
▁nhỉ	-5244
▁rắc	-5245
▁van	-5246
▁chai	-5247
▁khóc	-5248
▁trộn	-5249
▁lines	-5250
▁simpl	-5251
▁weren	-5252
▁decide	-5253
▁values	-5254
▁Richard	-5255
rel	-5256
the	-5257
und	-5258
▁Tổ	-5259
▁lẻ	-5260
used	-5261
▁Ber	-5262
▁Her	-5263
▁etc	-5264
▁gay	-5265
▁hus	-5266
▁los	-5267
▁quê	-5268
ening	-5269
ratic	-5270
▁Mart	-5271
▁male	-5272
▁dance	-5273
▁party	-5274
▁worry	-5275
▁forget	-5276
▁square	-5277
▁vulner	-5278
▁wealth	-5279
▁central	-5280
▁creates	-5281
▁physics	-5282
▁National	-5283
arm	-5284
▁cẩn	-5285
▁sky	-5286
▁thr	-5287
▁tuỳ	-5288
▁wood	-5289
▁destro	-5290
▁highly	-5291
▁insect	-5292
▁Harvard	-5293
▁meeting	-5294
▁direction	-5295
▁complexity	-5296
ago	-5297
ees	-5298
iếc	-5299
▁Lý	-5300
rast	-5301
▁Aud	-5302
▁dai	-5303
▁Mars	-5304
▁hall	-5305
▁motiv	-5306
▁lights	-5307
▁select	-5308
▁vaccine	-5309
▁networks	-5310
▁Cơ	-5311
iles	-5312
isms	-5313
▁nho	-5314
▁dính	-5315
▁shop	-5316
▁miệng	-5317
▁photo	-5318
▁eating	-5319
▁summer	-5320
▁focused	-5321
▁nuclear	-5322
▁purpose	-5323
▁daughter	-5324
▁instance	-5325
▁23	-5326
▁Gh	-5327
ancy	-5328
ceed	-5329
load	-5330
▁bắc	-5331
▁ord	-5332
▁rào	-5333
▁ste	-5334
▁tuệ	-5335
▁tạm	-5336
▁Đôi	-5337
▁đớn	-5338
eases	-5339
▁thẩm	-5340
▁drink	-5341
▁answers	-5342
▁campaign	-5343
▁cultural	-5344
▁invented	-5345
af	-5346
▁À	-5347
reg	-5348
▁Gl	-5349
ystem	-5350
▁miêu	-5351
▁shot	-5352
icians	-5353
▁ahead	-5354
▁catch	-5355
▁enorm	-5356
▁integr	-5357
▁streets	-5358
▁survive	-5359
▁profound	-5360
▁spending	-5361
▁transport	-5362
▁differences	-5363
▁temperature	-5364
olve	-5365
▁cốc	-5366
▁hẹn	-5367
▁inj	-5368
▁mẩu	-5369
order	-5370
▁boys	-5371
▁laws	-5372
▁lỏng	-5373
▁ngầm	-5374
▁phổi	-5375
▁birds	-5376
▁displ	-5377
▁decade	-5378
▁states	-5379
uct	-5380
urd	-5381
▁gà	-5382
▁tò	-5383
▁đáy	-5384
▁Dere	-5385
▁Giáo	-5386
▁base	-5387
▁nhạy	-5388
▁tree	-5389
▁Great	-5390
▁occur	-5391
▁worst	-5392
▁Middle	-5393
▁custom	-5394
▁depend	-5395
▁target	-5396
▁driving	-5397
▁greatest	-5398
▁Mr	-5399
▁194	-5400
▁Many	-5401
▁cand	-5402
▁gent	-5403
▁reve	-5404
▁symb	-5405
▁term	-5406
atives	-5407
▁adapt	-5408
▁analy	-5409
▁dying	-5410
▁hydro	-5411
▁range	-5412
▁vuông	-5413
▁brings	-5414
▁shares	-5415
▁artists	-5416
▁various	-5417
▁identity	-5418
▁inspired	-5419
▁password	-5420
ams	-5421
ios	-5422
▁99	-5423
cell	-5424
raid	-5425
urch	-5426
▁lão	-5427
▁đậu	-5428
▁Chắc	-5429
▁TEDx	-5430
▁beat	-5431
▁bạch	-5432
▁hiệp	-5433
▁husb	-5434
▁hạng	-5435
▁laugh	-5436
▁breast	-5437
▁causes	-5438
▁thoảng	-5439
▁diseases	-5440
ốm	-5441
azz	-5442
bert	-5443
▁Min	-5444
▁Ros	-5445
▁đón	-5446
orith	-5447
▁Alex	-5448
▁Thời	-5449
▁town	-5450
▁Times	-5451
▁concl	-5452
▁cường	-5453
▁gradu	-5454
▁afraid	-5455
▁Austral	-5456
▁terrible	-5457
gy	-5458
▁Cả	-5459
ores	-5460
▁Cực	-5461
▁mut	-5462
▁tây	-5463
▁2007	-5464
▁kiên	-5465
▁quái	-5466
▁trôi	-5467
▁Obama	-5468
▁floor	-5469
▁Chuyện	-5470
▁active	-5471
▁dimens	-5472
▁electr	-5473
▁document	-5474
▁communicate	-5475
▁Mĩ	-5476
athy	-5477
here	-5478
▁dàn	-5479
▁fat	-5480
▁wis	-5481
aging	-5482
▁conc	-5483
▁lapt	-5484
▁weap	-5485
▁Smith	-5486
▁Think	-5487
▁frame	-5488
▁flying	-5489
▁iPhone	-5490
▁resist	-5491
▁consequ	-5492
▁noticed	-5493
▁algorith	-5494
▁directly	-5495
▁published	-5496
▁scientist	-5497
cut	-5498
iot	-5499
▁rồ	-5500
orry	-5501
wise	-5502
▁thợ	-5503
▁Take	-5504
▁Thậm	-5505
▁dram	-5506
▁fing	-5507
▁hằng	-5508
▁paid	-5509
▁quán	-5510
▁rule	-5511
▁trắc	-5512
▁vast	-5513
▁Giống	-5514
▁capacity	-5515
▁mathemat	-5516
▁sustainable	-5517
vey	-5518
▁Gab	-5519
▁Lad	-5520
▁Nor	-5521
▁ing	-5522
▁leo	-5523
▁tóm	-5524
▁NASA	-5525
▁chấn	-5526
▁gala	-5527
▁hoại	-5528
▁loss	-5529
▁trạm	-5530
▁nướng	-5531
▁twice	-5532
▁Instead	-5533
▁missing	-5534
▁traffic	-5535
▁strength	-5536
▁experiences	-5537
lyn	-5538
▁ax	-5539
cule	-5540
▁hứa	-5541
▁lây	-5542
▁ngã	-5543
▁sad	-5544
▁disc	-5545
▁giày	-5546
▁quét	-5547
▁zero	-5548
▁đảng	-5549
▁Paris	-5550
▁Steve	-5551
▁Wikip	-5552
▁Darwin	-5553
▁commer	-5554
▁giường	-5555
▁supply	-5556
▁journal	-5557
▁relative	-5558
▁leadership	-5559
ẻo	-5560
add	-5561
ngu	-5562
ole	-5563
▁ut	-5564
ened	-5565
heim	-5566
race	-5567
▁Fin	-5568
▁Mal	-5569
▁atm	-5570
▁nét	-5571
itted	-5572
▁ngựa	-5573
elling	-5574
▁applic	-5575
▁closer	-5576
▁compon	-5577
▁mostly	-5578
▁knowing	-5579
▁members	-5580
▁trouble	-5581
▁independ	-5582
▁possibly	-5583
▁institutions	-5584
ato	-5585
now	-5586
▁Ah	-5587
▁rô	-5588
iest	-5589
▁Hey	-5590
▁Web	-5591
▁aid	-5592
▁fro	-5593
▁khô	-5594
▁đeo	-5595
idden	-5596
▁Kinh	-5597
▁Russ	-5598
▁doub	-5599
▁gift	-5600
▁join	-5601
▁basis	-5602
▁below	-5603
▁chăng	-5604
▁click	-5605
▁rough	-5606
▁divers	-5607
▁gentle	-5608
ribution	-5609
▁devices	-5610
▁emotion	-5611
▁stopped	-5612
▁Ok	-5613
empt	-5614
▁jump	-5615
▁lưng	-5616
▁narr	-5617
▁tens	-5618
▁broad	-5619
▁Martin	-5620
▁autism	-5621
rastruct	-5622
▁foreign	-5623
▁controll	-5624
▁Wikipedia	-5625
▁conference	-5626
ẫm	-5627
ino	-5628
ked	-5629
squ	-5630
▁II	-5631
▁mẻ	-5632
amin	-5633
izes	-5634
▁Lần	-5635
▁den	-5636
▁dyn	-5637
▁mãn	-5638
▁vắc	-5639
anced	-5640
▁tuyết	-5641
▁wheel	-5642
▁dollar	-5643
▁forces	-5644
▁photos	-5645
▁reduce	-5646
▁moments	-5647
▁molecule	-5648
▁philosoph	-5649
▁colleagues	-5650
▁corruption	-5651
▁22	-5652
aria	-5653
▁pig	-5654
▁Đến	-5655
▁đếm	-5656
▁King	-5657
▁tiếc	-5658
▁airpl	-5659
▁novel	-5660
▁switch	-5661
▁tissue	-5662
▁sharing	-5663
▁produced	-5664
▁Francisco	-5665
▁communication	-5666
mm	-5667
ches	-5668
vant	-5669
▁Did	-5670
▁Jer	-5671
▁Kết	-5672
▁Res	-5673
▁kèm	-5674
▁mèo	-5675
▁Amaz	-5676
▁Cùng	-5677
▁note	-5678
▁tĩnh	-5679
▁Derek	-5680
▁Would	-5681
▁Second	-5682
▁played	-5683
▁hearing	-5684
▁bringing	-5685
▁opportunities	-5686
irt	-5687
val	-5688
▁CE	-5689
▁Jon	-5690
▁Nob	-5691
▁dán	-5692
▁ver	-5693
othes	-5694
ufact	-5695
▁fort	-5696
▁ninh	-5697
▁crowd	-5698
▁feels	-5699
▁pengu	-5700
▁trăng	-5701
▁passed	-5702
▁fashion	-5703
▁helping	-5704
▁mission	-5705
▁original	-5706
▁programs	-5707
▁infrastruct	-5708
hy	-5709
ẫy	-5710
ụt	-5711
gal	-5712
▁dò	-5713
▁hô	-5714
aced	-5715
ears	-5716
▁Sun	-5717
▁gun	-5718
▁gói	-5719
▁hyp	-5720
▁joy	-5721
▁tám	-5722
▁Khán	-5723
▁Nhân	-5724
▁Park	-5725
▁bụng	-5726
▁lung	-5727
▁poet	-5728
ricult	-5729
▁Again	-5730
▁agree	-5731
▁liber	-5732
▁nearly	-5733
▁volunt	-5734
ervation	-5735
▁British	-5736
▁attract	-5737
▁opposite	-5738
PA	-5739
ils	-5740
mon	-5741
ota	-5742
uck	-5743
▁dã	-5744
icon	-5745
vere	-5746
▁lăn	-5747
▁org	-5748
attan	-5749
oting	-5750
▁2009	-5751
▁YouT	-5752
▁hỏng	-5753
▁lack	-5754
▁rare	-5755
▁stem	-5756
icking	-5757
▁Nobel	-5758
▁accur	-5759
▁faces	-5760
▁visit	-5761
▁oxygen	-5762
▁addition	-5763
▁studying	-5764
▁significant	-5765
mp	-5766
itz	-5767
lim	-5768
toc	-5769
▁Na	-5770
▁Art	-5771
▁Des	-5772
▁quà	-5773
tocin	-5774
▁Have	-5775
▁Jack	-5776
▁Stan	-5777
▁puzz	-5778
▁seed	-5779
ording	-5780
▁shift	-5781
▁YouTube	-5782
▁degrees	-5783
▁husband	-5784
▁insight	-5785
▁emotions	-5786
▁religion	-5787
▁structures	-5788
▁consciousness	-5789
▁relationships	-5790
och	-5791
▁gỡ	-5792
ason	-5793
iers	-5794
▁Bất	-5795
▁amb	-5796
▁tom	-5797
▁unc	-5798
iving	-5799
▁forg	-5800
▁fuel	-5801
▁tiệc	-5802
▁trần	-5803
▁vinh	-5804
▁recon	-5805
▁French	-5806
▁khuyên	-5807
▁therap	-5808
▁correct	-5809
▁manufact	-5810
▁–	-5811
▁hư	-5812
▁mờ	-5813
▁va	-5814
▁ép	-5815
▁ơi	-5816
▁Bab	-5817
▁Eve	-5818
▁Lat	-5819
▁lôi	-5820
ables	-5821
▁Mont	-5822
▁Nghệ	-5823
▁thói	-5824
▁toile	-5825
▁anyway	-5826
▁bought	-5827
▁necessary	-5828
▁commercial	-5829
▁importantly	-5830
ùm	-5831
▁Ú	-5832
▁cự	-5833
▁lề	-5834
▁Hoá	-5835
▁cru	-5836
▁cụm	-5837
▁dứt	-5838
▁Manh	-5839
▁arri	-5840
▁giấu	-5841
▁hair	-5842
▁lệnh	-5843
▁Trans	-5844
▁fully	-5845
▁lucky	-5846
▁newsp	-5847
▁total	-5848
▁Street	-5849
▁advant	-5850
▁tremend	-5851
▁Actually	-5852
▁benefits	-5853
▁atmosphere	-5854
ka	-5855
van	-5856
zen	-5857
▁36	-5858
▁gã	-5859
asse	-5860
ront	-5861
wide	-5862
▁Hội	-5863
▁Tal	-5864
▁heo	-5865
▁lâm	-5866
icles	-5867
riage	-5868
▁chìm	-5869
▁kênh	-5870
▁ngon	-5871
▁valu	-5872
▁vote	-5873
▁mouth	-5874
▁prost	-5875
artment	-5876
▁broken	-5877
▁consid	-5878
▁easily	-5879
▁failure	-5880
▁forever	-5881
▁require	-5882
▁although	-5883
▁entirely	-5884
▁differently	-5885
bes	-5886
▁dư	-5887
ises	-5888
pper	-5889
rise	-5890
▁Nga	-5891
▁Tor	-5892
▁bão	-5893
▁cla	-5894
▁hom	-5895
▁lãm	-5896
▁lặn	-5897
▁tor	-5898
▁1990	-5899
▁cogn	-5900
▁meas	-5901
▁reco	-5902
▁tung	-5903
▁wide	-5904
▁Carol	-5905
▁accom	-5906
▁brand	-5907
▁magaz	-5908
▁parad	-5909
▁batter	-5910
▁lesson	-5911
▁museum	-5912
▁wisdom	-5913
▁Angeles	-5914
▁restaur	-5915
▁argument	-5916
▁Manhattan	-5917
▁background	-5918
▁imagination	-5919
ij	-5920
iff	-5921
oun	-5922
▁Bo	-5923
▁Cứ	-5924
▁gõ	-5925
mark	-5926
mber	-5927
▁Mon	-5928
▁đực	-5929
esome	-5930
right	-5931
▁Over	-5932
▁burn	-5933
▁buôn	-5934
▁heat	-5935
▁khao	-5936
▁trốn	-5937
▁1,000	-5938
▁phiền	-5939
osystem	-5940
▁colors	-5941
▁corner	-5942
▁events	-5943
▁studio	-5944
▁symbol	-5945
▁ancient	-5946
▁turning	-5947
▁Audience	-5948
▁enormous	-5949
▁majority	-5950
▁industrial	-5951
▁ư	-5952
rie	-5953
▁Ac	-5954
▁US	-5955
edic	-5956
roud	-5957
▁Mặc	-5958
▁giơ	-5959
▁ham	-5960
▁pet	-5961
iable	-5962
pping	-5963
▁ngọt	-5964
heimer	-5965
isible	-5966
▁cheap	-5967
▁chick	-5968
▁equal	-5969
▁metap	-5970
ography	-5971
▁brilli	-5972
▁cooper	-5973
▁deeply	-5974
▁window	-5975
▁However	-5976
▁leading	-5977
▁matters	-5978
▁statistics	-5979
de	-5980
edy	-5981
mar	-5982
▁Dĩ	-5983
▁Úc	-5984
vest	-5985
ysis	-5986
▁Alz	-5987
▁Vài	-5988
▁dao	-5989
▁tax	-5990
based	-5991
itely	-5992
▁2005	-5993
▁gián	-5994
▁held	-5995
▁mệnh	-5996
▁sick	-5997
▁Điển	-5998
▁crime	-5999
▁khoan	-6000
▁lunch	-6001
▁rapid	-6002
▁thăng	-6003
▁Amazon	-6004
▁demand	-6005
▁engage	-6006
▁unlike	-6007
▁describe	-6008
▁mountain	-6009
▁Alzheimer	-6010
▁ecosystem	-6011
▁responsible	-6012
ợn	-6013
aff	-6014
equ	-6015
▁hố	-6016
▁tị	-6017
reci	-6018
▁ble	-6019
▁cúm	-6020
▁cất	-6021
▁quí	-6022
▁sàn	-6023
inate	-6024
raham	-6025
▁Good	-6026
▁More	-6027
▁core	-6028
▁thuế	-6029
aining	-6030
▁Peter	-6031
▁Trường	-6032
▁agricult	-6033
▁oxytocin	-6034
▁diversity	-6035
▁landscape	-6036
ius	-6037
▁27	-6038
▁Rw	-6039
hand	-6040
▁bud	-6041
▁hàm	-6042
quang	-6043
ulous	-6044
▁Eric	-6045
▁bone	-6046
▁mamm	-6047
▁thổi	-6048
▁tour	-6049
▁trưa	-6050
▁grown	-6051
▁School	-6052
▁grandm	-6053
▁workers	-6054
▁suffering	-6055
▁fascinating	-6056
▁governments	-6057
▁infrastructure	-6058
alt	-6059
irl	-6060
▁xí	-6061
oran	-6062
▁bul	-6063
▁bếp	-6064
▁fab	-6065
▁sữa	-6066
elesc	-6067
phone	-6068
▁dáng	-6069
▁golf	-6070
▁none	-6071
▁xinh	-6072
itable	-6073
pected	-6074
▁sport	-6075
▁dreams	-6076
▁expand	-6077
▁flight	-6078
ulations	-6079
▁contact	-6080
▁received	-6081
kn	-6082
zy	-6083
tle	-6084
▁Mu	-6085
▁Bas	-6086
▁Haw	-6087
▁Hig	-6088
▁Les	-6089
▁Rập	-6090
▁Tur	-6091
▁bag	-6092
▁bận	-6093
▁lõi	-6094
arter	-6095
oston	-6096
▁Once	-6097
▁bees	-6098
▁mort	-6099
▁rout	-6100
▁tươi	-6101
▁mosqu	-6102
▁users	-6103
▁breath	-6104
▁gotten	-6105
▁physic	-6106
▁sector	-6107
▁benefit	-6108
▁illness	-6109
▁Japanese	-6110
▁fighting	-6111
▁Sometimes	-6112
▁interaction	-6113
▁researchers	-6114
ượn	-6115
emen	-6116
▁600	-6117
▁Gần	-6118
▁Học	-6119
▁bụi	-6120
▁làn	-6121
▁mid	-6122
▁tân	-6123
icago	-6124
water	-6125
▁Hans	-6126
▁bùng	-6127
▁dược	-6128
▁repe	-6129
uments	-6130
▁bound	-6131
▁offer	-6132
▁shoes	-6133
▁altern	-6134
▁reward	-6135
▁Chicago	-6136
▁destroy	-6137
▁effects	-6138
▁justice	-6139
▁regular	-6140
▁shouldn	-6141
▁pressure	-6142
▁strategy	-6143
▁Australia	-6144
▁marketing	-6145
▁responsibility	-6146
gar	-6147
iel	-6148
▁ep	-6149
cked	-6150
ropy	-6151
term	-6152
▁Joe	-6153
▁cấm	-6154
▁khỉ	-6155
▁nor	-6156
▁nảy	-6157
▁rét	-6158
▁1970	-6159
▁Tiếp	-6160
▁epid	-6161
▁host	-6162
▁pair	-6163
▁quát	-6164
▁ship	-6165
▁spot	-6166
▁sung	-6167
encies	-6168
orders	-6169
▁legal	-6170
▁proud	-6171
▁Boston	-6172
▁adults	-6173
▁remote	-6174
▁seemed	-6175
▁balance	-6176
▁despite	-6177
▁European	-6178
▁compared	-6179
▁Everybody	-6180
▁creatures	-6181
ida	-6182
oses	-6183
otic	-6184
▁MRI	-6185
▁egg	-6186
▁hải	-6187
▁phì	-6188
▁sưu	-6189
▁thẻ	-6190
▁tuý	-6191
▁tắm	-6192
▁Asia	-6193
▁appl	-6194
▁ngắm	-6195
▁pian	-6196
▁wear	-6197
▁logic	-6198
▁tough	-6199
▁Palest	-6200
▁attempt	-6201
▁childhood	-6202
▁definition	-6203
ộm	-6204
ads	-6205
▁tủ	-6206
▁250	-6207
▁Pat	-6208
▁dan	-6209
▁tal	-6210
▁Swed	-6211
▁hate	-6212
▁liều	-6213
ellect	-6214
▁Charl	-6215
▁climb	-6216
▁habit	-6217
▁lường	-6218
▁prior	-6219
▁quant	-6220
▁dinner	-6221
▁laptop	-6222
▁meters	-6223
▁voices	-6224
▁perfectly	-6225
▁collective	-6226
eph	-6227
ếch	-6228
▁ưa	-6229
▁Mor	-6230
▁See	-6231
▁Sil	-6232
▁Wow	-6233
▁tum	-6234
athan	-6235
cript	-6236
cular	-6237
▁Tony	-6238
▁cưới	-6239
▁defe	-6240
▁exer	-6241
▁heav	-6242
▁muỗi	-6243
▁Willi	-6244
▁chann	-6245
▁faith	-6246
▁thịnh	-6247
▁veget	-6248
▁Khoảng	-6249
▁Thanks	-6250
▁bridge	-6251
▁raised	-6252
ographic	-6253
▁element	-6254
▁farmers	-6255
▁illustr	-6256
▁managed	-6257
▁married	-6258
▁volunte	-6259
▁internet	-6260
ax	-6261
ih	-6262
rict	-6263
rupt	-6264
▁Bức	-6265
▁Mic	-6266
▁alt	-6267
▁rãi	-6268
▁sơn	-6269
ropri	-6270
▁lướt	-6271
▁plat	-6272
▁tast	-6273
▁tháp	-6274
▁trib	-6275
▁Apple	-6276
▁Gates	-6277
▁circu	-6278
▁equip	-6279
▁giant	-6280
▁paint	-6281
▁stuck	-6282
▁convin	-6283
▁double	-6284
▁thinks	-6285
▁transm	-6286
▁brother	-6287
▁drawing	-6288
▁related	-6289
▁replace	-6290
▁typical	-6291
▁biological	-6292
▁tremendous	-6293
▁26	-6294
▁nở	-6295
gypt	-6296
▁Jim	-6297
▁Van	-6298
apers	-6299
▁chúa	-6300
▁gold	-6301
▁khôn	-6302
▁nhẫn	-6303
▁vari	-6304
▁calls	-6305
▁cycle	-6306
▁thùng	-6307
▁trượt	-6308
connect	-6309
▁Rwanda	-6310
▁aspect	-6311
▁easier	-6312
▁failed	-6313
▁yellow	-6314
▁concent	-6315
▁insects	-6316
▁negative	-6317
▁previous	-6318
▁cognitive	-6319
▁intellect	-6320
▁possibility	-6321
rit	-6322
uge	-6323
aser	-6324
▁Jan	-6325
▁kín	-6326
uries	-6327
▁Cộng	-6328
▁diet	-6329
▁intu	-6330
▁ngập	-6331
▁nhắm	-6332
▁thám	-6333
▁trục	-6334
▁wond	-6335
▁avoid	-6336
▁frequ	-6337
▁quote	-6338
▁thỉnh	-6339
▁corpor	-6340
▁genome	-6341
▁versus	-6342
▁artific	-6343
▁experts	-6344
▁figured	-6345
▁limited	-6346
▁distance	-6347
▁advantage	-6348
▁discovery	-6349
▁efficient	-6350
▁invisible	-6351
bl	-6352
emy	-6353
inc	-6354
cles	-6355
odes	-6356
▁Lin	-6357
▁bốt	-6358
▁pha	-6359
▁phú	-6360
▁saf	-6361
▁und	-6362
▁bomb	-6363
▁châm	-6364
▁cort	-6365
▁ngốc	-6366
▁nàng	-6367
▁thua	-6368
▁Gabby	-6369
▁Thiên	-6370
▁antib	-6371
▁enter	-6372
▁helps	-6373
▁leads	-6374
▁motor	-6375
▁thính	-6376
▁tướng	-6377
▁weird	-6378
▁desire	-6379
▁fairly	-6380
▁hidden	-6381
▁letter	-6382
▁notion	-6383
▁England	-6384
▁install	-6385
▁watched	-6386
▁billions	-6387
▁equipment	-6388
▁essential	-6389
▁languages	-6390
▁investment	-6391
vi	-6392
oot	-6393
aker	-6394
cket	-6395
esth	-6396
ille	-6397
▁Bao	-6398
▁Bài	-6399
▁Fre	-6400
▁due	-6401
▁fol	-6402
▁nốt	-6403
▁tun	-6404
▁xóm	-6405
antic	-6406
eared	-6407
icity	-6408
▁Does	-6409
▁Star	-6410
▁auth	-6411
▁cred	-6412
▁giam	-6413
▁shel	-6414
▁shut	-6415
▁stim	-6416
▁unex	-6417
▁fresh	-6418
▁names	-6419
▁quãng	-6420
▁round	-6421
▁subst	-6422
▁terror	-6423
▁100,000	-6424
ification	-6425
▁concentr	-6426
▁everyday	-6427
▁feedback	-6428
▁partners	-6429
imensional	-6430
▁necessarily	-6431
gin	-6432
uel	-6433
▁95	-6434
▁MT	-6435
▁cừ	-6436
▁ur	-6437
erly	-6438
roso	-6439
ulpt	-6440
▁Del	-6441
▁Hum	-6442
▁gar	-6443
▁rat	-6444
atell	-6445
▁Sing	-6446
▁Trời	-6447
▁Viện	-6448
▁empt	-6449
▁khớp	-6450
▁opin	-6451
▁wire	-6452
▁categ	-6453
▁daily	-6454
▁facts	-6455
▁incent	-6456
▁sculpt	-6457
▁holding	-6458
▁studied	-6459
▁succeed	-6460
▁creation	-6461
▁influence	-6462
cra	-6463
▁Bố	-6464
apse	-6465
aren	-6466
hold	-6467
▁Hen	-6468
▁Pol	-6469
▁Rep	-6470
▁cậy	-6471
▁dắt	-6472
known	-6473
▁1960	-6474
▁Very	-6475
▁cuộn	-6476
▁edge	-6477
▁hell	-6478
▁phái	-6479
▁tick	-6480
ctions	-6481
▁2,000	-6482
▁Egypt	-6483
▁homes	-6484
▁moves	-6485
▁thiệt	-6486
▁circum	-6487
▁houses	-6488
▁leader	-6489
▁neuros	-6490
▁leaving	-6491
▁mothers	-6492
▁planets	-6493
▁designer	-6494
▁investig	-6495
▁planning	-6496
ta	-6497
omy	-6498
ướp	-6499
▁Ox	-6500
▁bơ	-6501
obal	-6502
▁Hơn	-6503
▁Mad	-6504
▁Ngo	-6505
▁dám	-6506
▁rau	-6507
▁bong	-6508
▁lông	-6509
▁mill	-6510
▁phạt	-6511
▁tháo	-6512
inated	-6513
▁Could	-6514
▁argue	-6515
▁river	-6516
▁commit	-6517
▁opened	-6518
▁keeping	-6519
▁accident	-6520
▁struggle	-6521
▁surprise	-6522
dimensional	-6523
▁businesses	-6524
▁depression	-6525
que	-6526
ints	-6527
▁gấu	-6528
▁hầm	-6529
▁mạn	-6530
▁toả	-6531
▁trà	-6532
▁Gand	-6533
▁Wall	-6534
▁meat	-6535
▁nhãn	-6536
▁Brown	-6537
▁Higgs	-6538
▁mouse	-6539
entally	-6540
▁damage	-6541
▁satell	-6542
▁sister	-6543
▁appreci	-6544
▁awesome	-6545
▁invited	-6546
▁precise	-6547
▁radical	-6548
▁wearing	-6549
▁followed	-6550
▁platform	-6551
▁entertain	-6552
▁electrical	-6553
▁increasingly	-6554
▁nọ	-6555
▁vở	-6556
thal	-6557
▁Bur	-6558
▁Dis	-6559
▁Gal	-6560
▁Tes	-6561
▁lat	-6562
▁tit	-6563
aling	-6564
oking	-6565
▁Mand	-6566
▁iron	-6567
▁Thông	-6568
▁liked	-6569
▁surge	-6570
▁tuyển	-6571
▁begins	-6572
▁losing	-6573
▁capable	-6574
▁highest	-6575
▁metaphor	-6576
▁university	-6577
▁Hệ	-6578
uing	-6579
▁Bon	-6580
▁Mah	-6581
▁odd	-6582
eline	-6583
essed	-6584
inist	-6585
▁2004	-6586
▁Will	-6587
▁clip	-6588
▁grav	-6589
▁harm	-6590
▁king	-6591
▁moon	-6592
▁nắng	-6593
▁Thành	-6594
▁Tương	-6595
▁chước	-6596
▁cưỡng	-6597
▁piano	-6598
▁master	-6599
▁kilomet	-6600
▁markets	-6601
▁prototy	-6602
▁magazine	-6603
▁resource	-6604
▁separate	-6605
▁survival	-6606
▁surprised	-6607
▁universal	-6608
▁constantly	-6609
▁comfortable	-6610
▁experienced	-6611
▁lò	-6612
▁Ôi	-6613
▁Ant	-6614
▁Tin	-6615
▁Yet	-6616
▁bớt	-6617
▁cac	-6618
▁lát	-6619
▁nhở	-6620
▁thô	-6621
▁đâm	-6622
illed	-6623
inson	-6624
▁2006	-6625
▁khơi	-6626
▁đuôi	-6627
forest	-6628
▁Congo	-6629
▁rural	-6630
▁sorry	-6631
▁thuẫn	-6632
vention	-6633
▁origami	-6634
ibilities	-6635
▁finished	-6636
▁worldwide	-6637
▁characters	-6638
▁competition	-6639
uls	-6640
vis	-6641
▁65	-6642
▁Ke	-6643
▁195	-6644
▁Chủ	-6645
▁Này	-6646
▁Rio	-6647
▁Thử	-6648
▁dãy	-6649
▁hệt	-6650
▁ton	-6651
▁chìa	-6652
▁ranh	-6653
▁thưa	-6654
idents	-6655
ushing	-6656
▁Dương	-6657
▁Latin	-6658
▁sugar	-6659
issions	-6660
▁battle	-6661
▁gather	-6662
▁counter	-6663
▁killing	-6664
▁weapons	-6665
▁airplane	-6666
▁believed	-6667
▁suggests	-6668
▁described	-6669
▁associated	-6670
▁dimensions	-6671
▁phenomenon	-6672
▁ultimately	-6673
▁professional	-6674
ban	-6675
eng	-6676
lymp	-6677
onym	-6678
▁Ham	-6679
▁Tas	-6680
▁dry	-6681
▁gap	-6682
celer	-6683
osing	-6684
ublic	-6685
▁Each	-6686
▁chục	-6687
▁gard	-6688
▁purs	-6689
▁điêu	-6690
▁noise	-6691
▁advert	-6692
▁bright	-6693
▁charge	-6694
▁degree	-6695
▁pounds	-6696
▁shapes	-6697
▁letters	-6698
▁elements	-6699
▁concerned	-6700
▁expression	-6701
.5	-6702
amb	-6703
iat	-6704
ênh	-6705
▁Fe	-6706
▁Số	-6707
▁Tự	-6708
▁mỹ	-6709
rete	-6710
▁Dem	-6711
▁Rom	-6712
▁chở	-6713
▁flo	-6714
▁hoả	-6715
▁hòn	-6716
▁lùi	-6717
▁lạm	-6718
▁1000	-6719
▁2003	-6720
▁agre	-6721
▁disp	-6722
▁horm	-6723
ession	-6724
ildren	-6725
▁Chiến	-6726
▁perce	-6727
▁astron	-6728
▁belong	-6729
▁harder	-6730
▁organs	-6731
▁compare	-6732
▁courage	-6733
▁virtual	-6734
▁identify	-6735
▁normally	-6736
▁brilliant	-6737
▁perception	-6738
,5	-6739
▁32	-6740
▁CA	-6741
▁Hà	-6742
▁nợ	-6743
▁ồn	-6744
enty	-6745
▁Hoả	-6746
▁Mục	-6747
▁Rem	-6748
▁bút	-6749
▁mệt	-6750
▁vua	-6751
▁Ngài	-6752
▁muộn	-6753
▁ngực	-6754
▁puts	-6755
▁rung	-6756
▁thôn	-6757
▁Olymp	-6758
▁heads	-6759
▁holes	-6760
▁maint	-6761
▁phẳng	-6762
▁Howard	-6763
▁finish	-6764
▁factory	-6765
▁multiple	-6766
▁economics	-6767
▁artificial	-6768
ali	-6769
alu	-6770
car	-6771
ita	-6772
osm	-6773
ươn	-6774
▁28	-6775
▁Tu	-6776
▁bọ	-6777
▁sứ	-6778
bble	-6779
oted	-6780
zing	-6781
▁CEO	-6782
▁Cập	-6783
▁Ice	-6784
▁Nha	-6785
▁Ser	-6786
▁cởi	-6787
▁múa	-6788
▁que	-6789
▁đới	-6790
olves	-6791
▁exhi	-6792
▁gánh	-6793
▁khúc	-6794
▁peak	-6795
▁trấn	-6796
bridge	-6797
ribute	-6798
▁Henry	-6799
▁Yemen	-6800
▁horri	-6801
▁indic	-6802
iration	-6803
▁fellow	-6804
▁implic	-6805
▁leaves	-6806
▁slowly	-6807
▁transp	-6808
▁trained	-6809
▁soldiers	-6810
▁operating	-6811
▁generations	-6812
▁construction	-6813
▁transformation	-6814
ộp	-6815
fit	-6816
rat	-6817
▁Hu	-6818
ager	-6819
pher	-6820
▁Bảo	-6821
▁Cha	-6822
▁arr	-6823
▁mấu	-6824
▁pow	-6825
▁sốc	-6826
▁đồi	-6827
▁1950	-6828
▁1980	-6829
▁Quan	-6830
▁acad	-6831
▁adop	-6832
▁arms	-6833
▁band	-6834
▁chip	-6835
▁copy	-6836
▁dots	-6837
▁hasn	-6838
▁user	-6839
▁Koran	-6840
▁Women	-6841
▁coast	-6842
▁grade	-6843
▁sweet	-6844
▁synth	-6845
▁facing	-6846
▁interp	-6847
▁manage	-6848
▁stream	-6849
▁toilet	-6850
▁cartoon	-6851
▁curious	-6852
▁details	-6853
▁diction	-6854
▁marriage	-6855
▁ordinary	-6856
▁valuable	-6857
▁engineers	-6858
▁unexpected	-6859
izza	-6860
tech	-6861
▁rom	-6862
▁tow	-6863
▁vải	-6864
iques	-6865
▁2011	-6866
▁Khoa	-6867
▁crim	-6868
▁date	-6869
▁fell	-6870
▁tail	-6871
▁whom	-6872
atures	-6873
itness	-6874
▁Tiếng	-6875
▁aging	-6876
ributed	-6877
▁caused	-6878
▁desert	-6879
▁inform	-6880
▁safety	-6881
▁videos	-6882
▁organic	-6883
▁station	-6884
▁theater	-6885
▁analysis	-6886
▁tomorrow	-6887
▁currently	-6888
▁considered	-6889
▁passionate	-6890
▁distribution	-6891
ula	-6892
elly	-6893
ests	-6894
grad	-6895
iban	-6896
life	-6897
▁120	-6898
▁kịp	-6899
▁mỏi	-6900
gment	-6901
itals	-6902
▁exch	-6903
▁grid	-6904
▁hãng	-6905
▁khôi	-6906
▁lift	-6907
▁quad	-6908
▁Chiếc	-6909
▁duyệt	-6910
▁grain	-6911
▁lifet	-6912
▁scene	-6913
▁sympt	-6914
▁Tasman	-6915
▁paying	-6916
▁extract	-6917
▁testing	-6918
▁official	-6919
▁property	-6920
▁chemistry	-6921
▁employees	-6922
▁religious	-6923
▁Dự	-6924
▁Ug	-6925
▁rễ	-6926
care	-6927
osis	-6928
▁Int	-6929
▁cow	-6930
▁cối	-6931
▁ráp	-6932
owing	-6933
▁Bush	-6934
▁Hàng	-6935
▁lawy	-6936
▁manh	-6937
▁recy	-6938
▁thâm	-6939
▁While	-6940
▁steps	-6941
▁nghiện	-6942
▁nghịch	-6943
▁reform	-6944
▁terrif	-6945
▁equival	-6946
▁musical	-6947
▁weather	-6948
▁seriously	-6949
▁collection	-6950
▁consequences	-6951
▁unfortunately	-6952
cers	-6953
▁Ple	-6954
▁gan	-6955
▁hưu	-6956
asion	-6957
craft	-6958
itute	-6959
neath	-6960
opher	-6961
ratch	-6962
▁Bình	-6963
▁Ford	-6964
▁Hình	-6965
▁Long	-6966
▁Loại	-6967
▁asks	-6968
▁hurt	-6969
▁hồng	-6970
▁nhặt	-6971
▁Brian	-6972
▁awful	-6973
▁chart	-6974
▁empty	-6975
▁horse	-6976
▁khiếm	-6977
▁lưỡng	-6978
▁sight	-6979
▁walls	-6980
▁attach	-6981
▁closed	-6982
▁stupid	-6983
▁acceler	-6984
▁article	-6985
▁cutting	-6986
▁mosquit	-6987
▁partner	-6988
▁cultures	-6989
▁election	-6990
▁feelings	-6991
▁pleasure	-6992
▁sentence	-6993
▁interface	-6994
▁otherwise	-6995
▁civilization	-6996
irm	-6997
lle	-6998
nam	-6999
ume	-7000
▁Ro	-7001
▁ju	-7002
cipl	-7003
down	-7004
▁Sub	-7005
▁Tan	-7006
▁Thổ	-7007
▁Tốt	-7008
▁era	-7009
▁lật	-7010
▁mâu	-7011
▁tha	-7012
▁vây	-7013
alley	-7014
▁Life	-7015
▁hadn	-7016
▁jazz	-7017
▁địch	-7018
ulated	-7019
▁Their	-7020
▁cuồng	-7021
▁khẳng	-7022
▁ngoan	-7023
▁nhiếp	-7024
▁pages	-7025
▁plane	-7026
▁bubble	-7027
▁caught	-7028
▁filled	-7029
▁frustr	-7030
▁origin	-7031
▁phones	-7032
▁unless	-7033
▁malaria	-7034
▁setting	-7035
▁treated	-7036
▁Stanford	-7037
▁appropri	-7038
▁penguins	-7039
▁Cambridge	-7040
▁wondering	-7041
▁Everything	-7042
▁photographs	-7043
▁specifically	-7044
-1	-7045
ns	-7046
én	-7047
sey	-7048
ued	-7049
▁đố	-7050
aret	-7051
eral	-7052
▁Det	-7053
▁Lib	-7054
▁dol	-7055
▁hip	-7056
▁hẹp	-7057
▁ide	-7058
▁ves	-7059
ented	-7060
lands	-7061
▁Bệnh	-7062
▁Nghe	-7063
▁Toàn	-7064
▁cosm	-7065
▁khói	-7066
▁liqu	-7067
▁phím	-7068
▁shad	-7069
▁soil	-7070
▁vibr	-7071
rosoft	-7072
urally	-7073
▁Arist	-7074
▁Ghana	-7075
▁humor	-7076
▁laser	-7077
▁limit	-7078
▁smile	-7079
▁Oxford	-7080
▁cacbon	-7081
▁regret	-7082
▁sharks	-7083
▁signal	-7084
▁vehicle	-7085
▁clinical	-7086
▁whenever	-7087
▁according	-7088
▁construct	-7089
▁convinced	-7090
hol	-7091
zan	-7092
▁Rõ	-7093
yrus	-7094
▁LED	-7095
▁Quá	-7096
▁Tim	-7097
▁fal	-7098
▁pal	-7099
▁pil	-7100
▁rắn	-7101
▁Hiệp	-7102
▁Jose	-7103
▁migr	-7104
▁reci	-7105
▁tall	-7106
▁vươn	-7107
making	-7108
▁chain	-7109
▁fewer	-7110
▁inner	-7111
▁negot	-7112
▁Thượng	-7113
▁analog	-7114
▁ingred	-7115
▁empathy	-7116
▁opening	-7117
▁affected	-7118
▁expected	-7119
▁reaction	-7120
▁president	-7121
▁professor	-7122
ga	-7123
rs	-7124
bel	-7125
cil	-7126
icy	-7127
ker	-7128
arah	-7129
▁Jes	-7130
▁fan	-7131
▁fle	-7132
▁gam	-7133
▁sắt	-7134
▁ten	-7135
▁đàm	-7136
▁đáo	-7137
asing	-7138
▁Come	-7139
▁Tình	-7140
▁dogs	-7141
▁myth	-7142
▁mảng	-7143
▁nerv	-7144
▁pure	-7145
▁rein	-7146
▁warm	-7147
ension	-7148
ensity	-7149
father	-7150
illing	-7151
▁Three	-7152
▁pregn	-7153
▁solid	-7154
▁spoke	-7155
▁Uganda	-7156
▁deeper	-7157
▁fourth	-7158
▁khuyết	-7159
▁pollen	-7160
▁review	-7161
▁telesc	-7162
▁Aristot	-7163
▁arrived	-7164
▁battery	-7165
▁display	-7166
▁sending	-7167
▁engineer	-7168
▁released	-7169
▁Microsoft	-7170
▁practical	-7171
▁algorithms	-7172
▁democratic	-7173
▁equivalent	-7174
▁importance	-7175
▁underneath	-7176
▁politicians	-7177
▁entrepreneurs	-7178
ja	-7179
agh	-7180
set	-7181
▁FG	-7182
▁SW	-7183
▁đẻ	-7184
cast	-7185
gent	-7186
iors	-7187
uary	-7188
▁Bob	-7189
▁Mac	-7190
▁Mat	-7191
▁cừu	-7192
▁eld	-7193
▁fed	-7194
▁gối	-7195
▁spl	-7196
ipped	-7197
▁Bank	-7198
▁High	-7199
▁myst	-7200
▁ride	-7201
▁scen	-7202
▁tang	-7203
▁đoan	-7204
ateful	-7205
ipping	-7206
urance	-7207
▁3,000	-7208
▁colon	-7209
▁honor	-7210
▁khoái	-7211
▁saved	-7212
▁stood	-7213
▁Atlant	-7214
▁define	-7215
▁driver	-7216
▁prefer	-7217
▁refuge	-7218
▁vessel	-7219
▁conduct	-7220
▁contain	-7221
▁sources	-7222
▁launched	-7223
▁location	-7224
▁thoughts	-7225
▁hopefully	-7226
▁molecular	-7227
▁organized	-7228
▁techniques	-7229
▁grandmother	-7230
òm	-7231
ằn	-7232
bre	-7233
▁Ap	-7234
aked	-7235
atar	-7236
oved	-7237
▁Red	-7238
▁Tên	-7239
▁cạn	-7240
▁rửa	-7241
▁tần	-7242
point	-7243
▁Josh	-7244
▁abst	-7245
▁bits	-7246
▁cere	-7247
▁soul	-7248
▁weak	-7249
angers	-7250
terday	-7251
▁Steph	-7252
▁brief	-7253
▁pizza	-7254
oration	-7255
▁blocks	-7256
▁debate	-7257
▁gender	-7258
▁liquid	-7259
▁Taliban	-7260
▁players	-7261
▁promise	-7262
▁warming	-7263
▁circumst	-7264
▁gentlemen	-7265
▁psychology	-7266
▁relatively	-7267
jo	-7268
ini	-7269
▁33	-7270
▁ga	-7271
nded	-7272
▁Amy	-7273
▁Bắt	-7274
▁Sah	-7275
▁dâm	-7276
▁dải	-7277
▁mồi	-7278
▁phr	-7279
▁sạn	-7280
place	-7281
▁Flor	-7282
▁chín	-7283
▁cướp	-7284
▁dial	-7285
▁gain	-7286
▁libr	-7287
▁mush	-7288
▁soph	-7289
lement	-7290
▁grass	-7291
▁manip	-7292
▁quiet	-7293
▁staff	-7294
itarian	-7295
▁Center	-7296
▁Please	-7297
▁chocol	-7298
▁circle	-7299
▁forced	-7300
▁picked	-7301
▁covered	-7302
▁entropy	-7303
▁nations	-7304
▁nervous	-7305
▁worried	-7306
▁birthday	-7307
▁contract	-7308
▁printing	-7309
▁rational	-7310
▁emissions	-7311
▁hospitals	-7312
▁invention	-7313
▁processes	-7314
hai	-7315
nda	-7316
yan	-7317
▁Ju	-7318
Talk	-7319
acle	-7320
itan	-7321
kins	-7322
rove	-7323
▁Bên	-7324
▁Máy	-7325
▁Nan	-7326
▁lận	-7327
▁vẹn	-7328
riend	-7329
▁2001	-7330
▁Gold	-7331
▁Kore	-7332
▁Ngân	-7333
▁arts	-7334
▁lệch	-7335
▁màng	-7336
▁nurs	-7337
▁qual	-7338
▁treo	-7339
▁trân	-7340
▁Thiết	-7341
▁false	-7342
▁goods	-7343
▁metal	-7344
▁prove	-7345
▁stock	-7346
▁uncle	-7347
▁buying	-7348
▁hacker	-7349
▁severe	-7350
▁TEDTalk	-7351
▁microsc	-7352
▁victims	-7353
▁emerging	-7354
▁lifetime	-7355
▁requires	-7356
▁transition	-7357
▁connections	-7358
▁consumption	-7359
ye	-7360
mas	-7361
min	-7362
omb	-7363
▁85	-7364
▁Us	-7365
icip	-7366
▁Day	-7367
▁Dân	-7368
▁bow	-7369
▁bơm	-7370
▁dạo	-7371
▁dẻo	-7372
▁god	-7373
▁hem	-7374
▁lợn	-7375
▁qui	-7376
▁đạc	-7377
▁đạn	-7378
force	-7379
throp	-7380
▁Port	-7381
▁Tiến	-7382
▁bear	-7383
▁evil	-7384
▁inch	-7385
▁lect	-7386
▁dolph	-7387
▁folks	-7388
▁notes	-7389
▁shame	-7390
▁sides	-7391
▁status	-7392
▁toward	-7393
▁Florida	-7394
▁calling	-7395
▁dynamic	-7396
▁encoura	-7397
▁epidemic	-7398
▁stronger	-7399
▁designers	-7400
▁narrative	-7401
▁organisms	-7402
▁principle	-7403
▁vulnerable	-7404
▁independent	-7405
AR	-7406
ec	-7407
uk	-7408
cal	-7409
met	-7410
zed	-7411
ụng	-7412
▁0.	-7413
▁lờ	-7414
ardo	-7415
gged	-7416
irty	-7417
olds	-7418
oons	-7419
well	-7420
wich	-7421
▁Bol	-7422
▁Tex	-7423
▁Vir	-7424
▁ath	-7425
▁cắm	-7426
▁cắp	-7427
▁lic	-7428
▁lie	-7429
▁đền	-7430
being	-7431
lying	-7432
sters	-7433
▁Coca	-7434
▁Jeff	-7435
▁Lego	-7436
▁Nord	-7437
▁acqu	-7438
▁bath	-7439
▁poem	-7440
▁roof	-7441
▁tông	-7442
▁Found	-7443
▁Holly	-7444
▁Islam	-7445
▁heavy	-7446
▁ideal	-7447
▁quyên	-7448
▁risks	-7449
▁topic	-7450
osition	-7451
▁budget	-7452
▁island	-7453
inations	-7454
▁Abraham	-7455
▁Germany	-7456
▁Neander	-7457
▁engaged	-7458
▁release	-7459
▁signals	-7460
▁infected	-7461
▁mistakes	-7462
▁mortality	-7463
▁newspaper	-7464
▁technical	-7465
▁convention	-7466
▁foundation	-7467
▁intelligent	-7468
▁intellectual	-7469
eda	-7470
agen	-7471
ulin	-7472
weet	-7473
▁Hàn	-7474
▁bon	-7475
▁bắp	-7476
▁bọc	-7477
▁kẹo	-7478
▁kẹt	-7479
anted	-7480
etics	-7481
▁Gree	-7482
▁buýt	-7483
▁dish	-7484
▁ille	-7485
▁jail	-7486
▁kiệt	-7487
▁lady	-7488
▁scar	-7489
▁trip	-7490
▁unus	-7491
▁vĩnh	-7492
athers	-7493
enture	-7494
olving	-7495
▁Scott	-7496
▁State	-7497
▁Texas	-7498
▁khiêu	-7499
▁minim	-7500
▁north	-7501
▁Daniel	-7502
▁khuynh	-7503
▁motion	-7504
▁trials	-7505
▁fiction	-7506
▁lessons	-7507
▁Congress	-7508
▁memories	-7509
▁Aristotle	-7510
▁restaurant	-7511
▁effectively	-7512
box	-7513
▁Âm	-7514
abol	-7515
bles	-7516
sper	-7517
thur	-7518
▁Cop	-7519
▁Lar	-7520
▁Law	-7521
▁Ray	-7522
▁dọn	-7523
▁lấp	-7524
▁mòn	-7525
▁rig	-7526
▁tox	-7527
▁whe	-7528
agers	-7529
umber	-7530
▁Last	-7531
▁chúc	-7532
▁coal	-7533
▁flat	-7534
▁isol	-7535
▁lies	-7536
▁nhầm	-7537
▁nose	-7538
▁tuân	-7539
vember	-7540
▁Brook	-7541
▁Since	-7542
▁claim	-7543
▁eleph	-7544
▁huyền	-7545
▁nhàng	-7546
▁rates	-7547
▁satis	-7548
▁serve	-7549
▁bottle	-7550
▁exists	-7551
▁medium	-7552
▁patent	-7553
▁remain	-7554
▁Charlie	-7555
▁channel	-7556
▁roughly	-7557
▁silence	-7558
▁singing	-7559
▁relevant	-7560
▁spectrum	-7561
▁definitely	-7562
▁kilometers	-7563
▁management	-7564
▁possibilities	-7565
oli	-7566
org	-7567
▁Gr	-7568
▁Hi	-7569
▁Kể	-7570
▁Sa	-7571
▁Sl	-7572
▁nề	-7573
▁zo	-7574
▁đỗ	-7575
foot	-7576
▁Nơi	-7577
▁Phụ	-7578
▁Sat	-7579
▁bia	-7580
▁tựa	-7581
▁đai	-7582
enced	-7583
estic	-7584
▁Part	-7585
▁Stud	-7586
▁giãn	-7587
▁init	-7588
▁thắc	-7589
▁wave	-7590
anging	-7591
▁error	-7592
▁layer	-7593
▁south	-7594
▁former	-7595
▁height	-7596
▁poetry	-7597
▁William	-7598
▁actions	-7599
▁chicken	-7600
▁falling	-7601
▁transpl	-7602
▁dramatic	-7603
▁exercise	-7604
▁proteins	-7605
▁carefully	-7606
▁chocolate	-7607
▁interpret	-7608
▁producing	-7609
▁sophistic	-7610
▁introduced	-7611
▁personally	-7612
▁principles	-7613
▁protection	-7614
▁alternative	-7615
▁grandfather	-7616
va	-7617
wa	-7618
den	-7619
▁Vi	-7620
▁hã	-7621
▁mồ	-7622
▁Chà	-7623
▁dot	-7624
▁nar	-7625
▁nav	-7626
▁rập	-7627
▁sen	-7628
▁trú	-7629
▁vay	-7630
▁xám	-7631
acles	-7632
erves	-7633
print	-7634
▁Four	-7635
▁Stew	-7636
▁cave	-7637
▁lũng	-7638
▁mười	-7639
▁seat	-7640
▁sees	-7641
▁flash	-7642
▁occup	-7643
▁candid	-7644
▁cortex	-7645
▁credit	-7646
▁forgot	-7647
▁fortun	-7648
▁lifest	-7649
▁amounts	-7650
▁depends	-7651
▁explains	-7652
▁encourage	-7653
▁meaningful	-7654
▁profession	-7655
yo	-7656
imp	-7657
ịnh	-7658
▁DV	-7659
▁dở	-7660
cont	-7661
gets	-7662
izon	-7663
▁Jew	-7664
▁Ven	-7665
▁cựu	-7666
▁ens	-7667
▁mọc	-7668
▁nit	-7669
▁pip	-7670
▁ske	-7671
▁thổ	-7672
gging	-7673
opard	-7674
▁Gulf	-7675
▁Mình	-7676
▁Pres	-7677
▁anti	-7678
▁chăn	-7679
▁inev	-7680
▁mỏng	-7681
▁poly	-7682
▁wars	-7683
▁Cyrus	-7684
▁added	-7685
▁cents	-7686
▁cương	-7687
▁estab	-7688
▁plans	-7689
▁shoot	-7690
▁thằng	-7691
agement	-7692
▁Sahara	-7693
▁Sweden	-7694
▁flower	-7695
▁reveal	-7696
▁scared	-7697
▁existing	-7698
▁generate	-7699
▁hydrogen	-7700
▁mushroom	-7701
▁designing	-7702
▁disappear	-7703
▁framework	-7704
▁interests	-7705
▁mentioned	-7706
▁particles	-7707
▁components	-7708
▁circumstances	-7709
ễu	-7710
ari	-7711
▁Op	-7712
▁vé	-7713
▁vỗ	-7714
▁Đa	-7715
abil	-7716
cest	-7717
cons	-7718
▁191	-7719
▁Bos	-7720
▁Kev	-7721
▁Lạp	-7722
▁Som	-7723
▁dốc	-7724
▁nêu	-7725
▁row	-7726
▁đợt	-7727
erent	-7728
▁2050	-7729
▁Mike	-7730
▁Tổng	-7731
▁bike	-7732
▁item	-7733
▁khéo	-7734
▁ngừa	-7735
▁root	-7736
▁wine	-7737
iberia	-7738
lessly	-7739
porary	-7740
rument	-7741
▁Black	-7742
▁Count	-7743
▁Democ	-7744
▁Tuyệt	-7745
▁chose	-7746
▁doubt	-7747
▁inequ	-7748
▁poore	-7749
▁shall	-7750
▁sites	-7751
▁vượng	-7752
▁advice	-7753
▁fields	-7754
▁fright	-7755
volution	-7756
▁Britain	-7757
▁dealing	-7758
▁defined	-7759
▁opinion	-7760
▁rapidly	-7761
▁reprodu	-7762
▁grateful	-7763
▁internal	-7764
▁sequence	-7765
▁subjects	-7766
▁tracking	-7767
▁introduce	-7768
▁typically	-7769
▁mathematics	-7770
▁participate	-7771
▁environments	-7772
BM	-7773
ora	-7774
▁55	-7775
▁Bi	-7776
▁bá	-7777
hyth	-7778
ican	-7779
whel	-7780
▁Bre	-7781
▁Cap	-7782
▁Den	-7783
▁Hải	-7784
▁hôi	-7785
▁mel	-7786
▁sôi	-7787
aters	-7788
icing	-7789
itual	-7790
▁Nước	-7791
▁Rock	-7792
▁boat	-7793
▁dũng	-7794
▁ends	-7795
▁lượt	-7796
▁thép	-7797
▁unit	-7798
▁vang	-7799
asters	-7800
ternal	-7801
▁aston	-7802
▁goals	-7803
▁ignor	-7804
▁polio	-7805
ulating	-7806
▁Nghiên	-7807
▁repair	-7808
▁senses	-7809
▁worlds	-7810
▁Mandela	-7811
▁capture	-7812
▁gravity	-7813
▁solving	-7814
▁unusual	-7815
▁variety	-7816
▁accurate	-7817
▁constant	-7818
▁awareness	-7819
▁innovative	-7820
▁instrument	-7821
▁percentage	-7822
▁fundamentally	-7823
DA	-7824
aze	-7825
idi	-7826
ums	-7827
▁29	-7828
▁bù	-7829
oken	-7830
rane	-7831
▁700	-7832
▁Dep	-7833
▁Kim	-7834
▁Kir	-7835
▁Ram	-7836
▁ack	-7837
▁chợ	-7838
▁dat	-7839
▁nát	-7840
▁sem	-7841
abled	-7842
earch	-7843
iency	-7844
uther	-7845
▁nano	-7846
▁ring	-7847
▁runs	-7848
▁spin	-7849
▁tons	-7850
▁Điểm	-7851
▁Đồng	-7852
itchen	-7853
profit	-7854
rovers	-7855
▁estim	-7856
▁label	-7857
▁ridic	-7858
▁thoái	-7859
▁Andrew	-7860
▁Norden	-7861
▁ancest	-7862
▁factor	-7863
▁galaxy	-7864
▁length	-7865
▁movies	-7866
▁player	-7867
▁sample	-7868
▁Science	-7869
▁applied	-7870
▁consist	-7871
▁earthqu	-7872
▁forests	-7873
▁intense	-7874
▁operate	-7875
▁primary	-7876
▁privile	-7877
▁reverse	-7878
▁witness	-7879
▁abstract	-7880
▁disaster	-7881
▁messages	-7882
▁overwhel	-7883
▁swimming	-7884
▁wondered	-7885
▁authority	-7886
▁economies	-7887
EC	-7888
ũi	-7889
ati	-7890
eak	-7891
tit	-7892
▁31	-7893
▁CD	-7894
▁Da	-7895
▁mỉ	-7896
▁rẽ	-7897
ctic	-7898
roit	-7899
▁Syr	-7900
▁Tra	-7901
▁mày	-7902
▁nản	-7903
▁pun	-7904
▁rot	-7905
▁uns	-7906
▁xôi	-7907
alled	-7908
ament	-7909
atson	-7910
organ	-7911
▁Comm	-7912
▁Scot	-7913
▁Sinh	-7914
▁bill	-7915
▁elev	-7916
▁hide	-7917
▁hoài	-7918
▁hạch	-7919
▁phác	-7920
▁suit	-7921
source	-7922
▁atoms	-7923
▁auton	-7924
▁clock	-7925
▁films	-7926
▁navig	-7927
▁teams	-7928
▁tumor	-7929
▁Watson	-7930
▁critic	-7931
▁explan	-7932
▁hoping	-7933
▁joined	-7934
▁member	-7935
▁option	-7936
▁Detroit	-7937
▁Indones	-7938
▁accompl	-7939
▁combine	-7940
▁funding	-7941
▁insulin	-7942
▁regions	-7943
▁selling	-7944
▁carrying	-7945
▁concrete	-7946
▁confront	-7947
▁exchange	-7948
▁graduate	-7949
▁Hollywood	-7950
▁mountains	-7951
▁passwords	-7952
▁confidence	-7953
▁economists	-7954
▁philosophy	-7955
▁manufacturing	-7956
MA	-7957
▁ồ	-7958
oug	-7959
ờng	-7960
▁37	-7961
▁ED	-7962
▁Ty	-7963
eare	-7964
eras	-7965
iled	-7966
oned	-7967
ston	-7968
▁800	-7969
▁Eas	-7970
▁Mil	-7971
▁dội	-7972
▁nén	-7973
▁pho	-7974
elson	-7975
inder	-7976
iture	-7977
▁Bron	-7978
▁Girl	-7979
▁Gore	-7980
▁Only	-7981
▁bách	-7982
▁bỗng	-7983
▁thầm	-7984
▁trật	-7985
▁Syria	-7986
▁barri	-7987
▁domin	-7988
▁teeth	-7989
▁Arthur	-7990
▁Singap	-7991
▁compar	-7992
▁oceans	-7993
▁regard	-7994
▁ritual	-7995
▁sports	-7996
▁string	-7997
▁Rosling	-7998
▁Stephen	-7999
▁factors	-8000
▁however	-8001
▁sandwich	-8002
▁sunlight	-8003
▁vaccines	-8004
▁animation	-8005
▁centuries	-8006
▁chemicals	-8007
▁increased	-8008
▁traveling	-8009
▁yesterday	-8010
▁discussion	-8011
▁collaboration	-8012
di	-8013
ẳm	-8014
igm	-8015
pet	-8016
rey	-8017
▁Ra	-8018
▁võ	-8019
▁đẽ	-8020
Cola	-8021
▁Bác	-8022
▁Eth	-8023
▁Lou	-8024
▁Mel	-8025
▁Mer	-8026
▁Quý	-8027
▁Tem	-8028
▁bấy	-8029
▁chả	-8030
▁gác	-8031
▁tap	-8032
▁xíu	-8033
ansas	-8034
▁Mill	-8035
▁Wolf	-8036
▁chua	-8037
▁loud	-8038
▁mere	-8039
▁rebu	-8040
▁stro	-8041
▁tiễn	-8042
▁trừu	-8043
▁wake	-8044
▁xăng	-8045
▁Grand	-8046
▁dinos	-8047
▁obser	-8048
▁Health	-8049
▁Muslim	-8050
▁Phương	-8051
▁Russia	-8052
▁extend	-8053
▁facial	-8054
▁mirror	-8055
▁nghiệt	-8056
▁poster	-8057
▁solved	-8058
▁winter	-8059
▁Iceland	-8060
▁cooking	-8061
▁harvest	-8062
▁antibiot	-8063
▁contrast	-8064
▁Indonesia	-8065
▁Singapore	-8066
▁movements	-8067
▁operation	-8068
▁Foundation	-8069
▁behavioral	-8070
▁productive	-8071
▁combination	-8072
▁conversations	-8073
▁transportation	-8074
TC	-8075
esh	-8076
pha	-8077
bors	-8078
burg	-8079
▁Air	-8080
▁Hel	-8081
▁Lee	-8082
▁adj	-8083
▁bee	-8084
▁bìa	-8085
▁hụt	-8086
agram	-8087
akesp	-8088
amine	-8089
burgh	-8090
cific	-8091
oster	-8092
ville	-8093
▁Give	-8094
▁Jenn	-8095
▁Time	-8096
▁Zeal	-8097
▁bold	-8098
▁cổng	-8099
▁fake	-8100
▁gall	-8101
▁milk	-8102
▁muối	-8103
▁pray	-8104
▁Other	-8105
▁cyber	-8106
▁devil	-8107
▁fears	-8108
▁resil	-8109
▁skill	-8110
▁steel	-8111
▁thick	-8112
▁50,000	-8113
▁assign	-8114
▁fabric	-8115
ographer	-8116
▁Project	-8117
▁Shakesp	-8118
▁include	-8119
abilities	-8120
▁collapse	-8121
▁consumer	-8122
▁prepared	-8123
▁behaviors	-8124
▁computing	-8125
▁resistance	-8126
▁challenging	-8127
▁destruction	-8128
▁applications	-8129
mad	-8130
rem	-8131
▁lơ	-8132
▁đà	-8133
alia	-8134
ihad	-8135
mers	-8136
ogue	-8137
rill	-8138
▁---	-8139
▁Bel	-8140
▁DVD	-8141
▁lam	-8142
▁lắc	-8143
eding	-8144
ictor	-8145
lines	-8146
orter	-8147
▁Also	-8148
▁Lang	-8149
▁Sant	-8150
▁busy	-8151
▁cock	-8152
▁desk	-8153
▁eggs	-8154
▁flex	-8155
▁hunt	-8156
▁ruồi	-8157
▁tank	-8158
▁thẳm	-8159
arrass	-8160
ifying	-8161
imeter	-8162
rition	-8163
▁Gener	-8164
▁Thánh	-8165
▁frank	-8166
▁input	-8167
▁ought	-8168
▁reven	-8169
▁stere	-8170
▁Design	-8171
▁Nelson	-8172
▁acting	-8173
▁church	-8174
▁offers	-8175
▁proced	-8176
▁writer	-8177
chnology	-8178
▁Islamic	-8179
▁Perhaps	-8180
▁centers	-8181
▁comment	-8182
▁convince	-8183
▁instinct	-8184
▁Institute	-8185
▁President	-8186
▁generally	-8187
▁lifestyle	-8188
▁mechanism	-8189
▁represents	-8190
▁agriculture	-8191
ux	-8192
ena	-8193
war	-8194
▁Du	-8195
▁Es	-8196
▁ốc	-8197
adic	-8198
ette	-8199
opia	-8200
what	-8201
▁Boy	-8202
▁Jac	-8203
▁Pan	-8204
▁hóc	-8205
▁lúa	-8206
▁mat	-8207
▁súc	-8208
▁vụn	-8209
ogram	-8210
reenh	-8211
scale	-8212
▁Sand	-8213
▁Walk	-8214
▁cure	-8215
▁giặt	-8216
▁maps	-8217
▁mộng	-8218
▁neut	-8219
▁orch	-8220
▁plus	-8221
▁snow	-8222
▁soạn	-8223
▁ther	-8224
▁trộm	-8225
lation	-8226
stream	-8227
titles	-8228
▁Bronx	-8229
▁Chile	-8230
▁bombs	-8231
▁sacri	-8232
▁Gandhi	-8233
▁clever	-8234
▁driven	-8235
▁owners	-8236
▁stands	-8237
▁stayed	-8238
▁Stewart	-8239
▁Zealand	-8240
▁cameras	-8241
▁circuit	-8242
▁illegal	-8243
▁instrum	-8244
▁metabol	-8245
▁parking	-8246
▁samples	-8247
▁therapy	-8248
▁Carolina	-8249
▁hypothes	-8250
▁radiation	-8251
▁department	-8252
▁increasing	-8253
▁literature	-8254
▁situations	-8255
▁Shakespeare	-8256
▁inspiration	-8257
▁transformed	-8258
▁sophisticated	-8259
▁sustainability	-8260
BC	-8261
ủa	-8262
gie	-8263
obs	-8264
oto	-8265
rog	-8266
▁nụ	-8267
▁rũ	-8268
▁Đi	-8269
abet	-8270
ifer	-8271
ifth	-8272
otes	-8273
▁Cor	-8274
▁Lew	-8275
▁Trẻ	-8276
▁Wal	-8277
▁bes	-8278
▁bướ	-8279
▁gũi	-8280
▁mer	-8281
▁tea	-8282
▁tím	-8283
▁unh	-8284
chair	-8285
stand	-8286
umped	-8287
▁Chào	-8288
▁Pole	-8289
▁bare	-8290
▁chợt	-8291
▁flag	-8292
▁hits	-8293
▁mươi	-8294
▁obst	-8295
▁pref	-8296
▁prem	-8297
▁xích	-8298
ortion	-8299
▁Power	-8300
▁boxes	-8301
▁signs	-8302
▁steal	-8303
▁walks	-8304
▁xướng	-8305
▁Island	-8306
▁Joseph	-8307
▁Victor	-8308
▁Virgin	-8309
▁Yorker	-8310
▁anonym	-8311
▁clouds	-8312
▁devast	-8313
▁greenh	-8314
▁hunger	-8315
▁ladies	-8316
▁negoti	-8317
▁prosth	-8318
▁pulled	-8319
▁reject	-8320
▁sacrif	-8321
▁storyt	-8322
▁thanks	-8323
▁authent	-8324
▁borders	-8325
▁burning	-8326
▁mistake	-8327
▁options	-8328
▁apparent	-8329
▁somewhat	-8330
▁determine	-8331
▁embarrass	-8332
▁identical	-8333
▁neighbors	-8334
▁satellite	-8335
▁technique	-8336
▁controlled	-8337
▁earthquake	-8338
▁laboratory	-8339
▁potentially	-8340
BI	-8341
wl	-8342
200	-8343
bul	-8344
obi	-8345
▁km	-8346
▁ốm	-8347
keep	-8348
resp	-8349
roph	-8350
▁Mag	-8351
▁Ron	-8352
▁chẽ	-8353
▁hét	-8354
▁mad	-8355
▁reh	-8356
▁ren	-8357
▁wel	-8358
▁ếch	-8359
esity	-8360
field	-8361
level	-8362
night	-8363
▁1930	-8364
▁2002	-8365
▁Blue	-8366
▁Coll	-8367
▁Love	-8368
▁asse	-8369
▁dict	-8370
▁loop	-8371
▁mượn	-8372
▁ngẫm	-8373
▁sets	-8374
▁suic	-8375
ptions	-8376
▁Prize	-8377
▁Tưởng	-8378
▁broke	-8379
▁dedic	-8380
▁globe	-8381
▁memor	-8382
▁plays	-8383
▁tests	-8384
▁tráng	-8385
▁whist	-8386
▁Lester	-8387
▁Museum	-8388
▁arrest	-8389
▁garden	-8390
▁immune	-8391
▁khoáng	-8392
▁puzzle	-8393
▁survey	-8394
▁closely	-8395
▁dancing	-8396
▁embrace	-8397
▁empower	-8398
▁equally	-8399
▁flowers	-8400
▁tonight	-8401
▁unknown	-8402
connected	-8403
▁Everyone	-8404
▁advanced	-8405
▁allowing	-8406
▁download	-8407
▁horrible	-8408
▁instruct	-8409
▁ultimate	-8410
▁vehicles	-8411
▁collected	-8412
▁existence	-8413
▁spiritual	-8414
▁physically	-8415
▁processing	-8416
▁properties	-8417
▁appropriate	-8418
▁entrepreneur	-8419
mit	-8420
ras	-8421
via	-8422
wor	-8423
▁Ky	-8424
▁Ol	-8425
▁Vo	-8426
▁dỗ	-8427
▁đệ	-8428
cher	-8429
iger	-8430
oked	-8431
xies	-8432
▁Bay	-8433
▁Hom	-8434
▁Kar	-8435
▁Pre	-8436
▁asp	-8437
▁bin	-8438
▁bẩn	-8439
▁lân	-8440
▁ván	-8441
▁độn	-8442
arant	-8443
▁Carl	-8444
▁acts	-8445
▁cược	-8446
▁cống	-8447
▁diss	-8448
▁furn	-8449
▁joke	-8450
▁nhào	-8451
▁outc	-8452
▁quặc	-8453
▁thin	-8454
▁trán	-8455
▁wash	-8456
ilding	-8457
▁Laden	-8458
▁Nghĩa	-8459
▁admit	-8460
▁beach	-8461
▁dense	-8462
▁keeps	-8463
▁males	-8464
▁phase	-8465
▁pitch	-8466
▁pound	-8467
▁quyến	-8468
▁shell	-8469
▁xưởng	-8470
▁Joshua	-8471
▁Nobody	-8472
▁acknow	-8473
▁conver	-8474
▁desper	-8475
▁formed	-8476
▁mainly	-8477
etically	-8478
▁January	-8479
▁electro	-8480
▁overall	-8481
▁painful	-8482
▁distinct	-8483
▁romantic	-8484
▁symptoms	-8485
▁Christmas	-8486
▁implement	-8487
▁spreading	-8488
▁Revolution	-8489
▁activities	-8490
▁collecting	-8491
▁transplant	-8492
▁interactive	-8493
▁implications	-8494
GO	-8495
NC	-8496
hr	-8497
iev	-8498
sen	-8499
ses	-8500
▁46	-8501
▁Ku	-8502
▁hò	-8503
asks	-8504
aven	-8505
cend	-8506
hour	-8507
lete	-8508
osph	-8509
over	-8510
uses	-8511
viol	-8512
▁Chị	-8513
▁IBM	-8514
▁Med	-8515
▁Met	-8516
▁Qua	-8517
▁bám	-8518
▁bấm	-8519
▁gìn	-8520
▁lều	-8521
▁mến	-8522
cking	-8523
▁1900	-8524
▁Leon	-8525
▁Mary	-8526
▁bicy	-8527
▁elim	-8528
▁fert	-8529
▁foss	-8530
▁lánh	-8531
▁nồng	-8532
▁pool	-8533
▁tape	-8534
▁Điện	-8535
icious	-8536
▁Giọng	-8537
▁Kevin	-8538
▁River	-8539
▁Super	-8540
▁knock	-8541
▁roads	-8542
▁stret	-8543
▁uncom	-8544
▁waves	-8545
▁wings	-8546
▁Before	-8547
▁Newton	-8548
▁divide	-8549
▁handle	-8550
▁nhường	-8551
▁pocket	-8552
▁replic	-8553
▁Montana	-8554
▁advance	-8555
▁attacks	-8556
▁discipl	-8557
▁kitchen	-8558
▁viruses	-8559
▁illusion	-8560
ologically	-8561
▁Subtitles	-8562
▁arguments	-8563
▁conflicts	-8564
▁continent	-8565
▁establish	-8566
▁measuring	-8567
▁sensitive	-8568
▁Transcript	-8569
▁conclusion	-8570
▁controvers	-8571
▁healthcare	-8572
▁underwater	-8573
▁wheelchair	-8574
▁entertainment	-8575
ila	-8576
nel	-8577
nia	-8578
rol	-8579
▁Bh	-8580
▁sô	-8581
▁xỉ	-8582
▁ôm	-8583
eron	-8584
kers	-8585
plom	-8586
▁Ann	-8587
▁Cur	-8588
▁Gen	-8589
▁Jay	-8590
▁Lấy	-8591
▁McC	-8592
▁Tam	-8593
▁Ted	-8594
▁cup	-8595
▁sáo	-8596
▁sắm	-8597
hythm	-8598
usive	-8599
▁Hell	-8600
▁Jane	-8601
▁Kenn	-8602
▁Miss	-8603
▁Next	-8604
▁Sept	-8605
▁beet	-8606
▁gest	-8607
▁hiếp	-8608
▁ment	-8609
▁mãnh	-8610
▁pill	-8611
▁rush	-8612
▁ruột	-8613
▁rỗng	-8614
▁trig	-8615
isters	-8616
▁About	-8617
▁refer	-8618
▁upper	-8619
▁border	-8620
▁contem	-8621
▁perman	-8622
▁suffer	-8623
▁classes	-8624
▁command	-8625
▁designs	-8626
▁dropped	-8627
▁feature	-8628
▁implant	-8629
▁largely	-8630
▁obesity	-8631
▁reached	-8632
▁records	-8633
▁regener	-8634
▁brothers	-8635
▁galaxies	-8636
▁pregnant	-8637
▁required	-8638
▁September	-8639
▁explained	-8640
▁pollution	-8641
▁prototype	-8642
▁providing	-8643
▁incentives	-8644
▁advertising	-8645
▁astonishing	-8646
▁+	-8647
ano	-8648
cue	-8649
rid	-8650
xim	-8651
▁mổ	-8652
▁nô	-8653
▁ub	-8654
agos	-8655
ords	-8656
▁Cần	-8657
▁Get	-8658
▁Roy	-8659
▁Sec	-8660
▁ben	-8661
▁cài	-8662
▁luỹ	-8663
▁mim	-8664
▁vit	-8665
▁Đấy	-8666
acing	-8667
erial	-8668
▁Bern	-8669
▁Loài	-8670
▁chôn	-8671
▁gray	-8672
▁lùng	-8673
▁nhạt	-8674
▁nhện	-8675
▁phun	-8676
▁thấm	-8677
iosity	-8678
▁angry	-8679
▁exhib	-8680
▁judge	-8681
▁liver	-8682
▁opera	-8683
▁remem	-8684
▁songs	-8685
▁storm	-8686
▁Anyway	-8687
▁Nguyên	-8688
▁assume	-8689
▁boring	-8690
▁heroes	-8691
▁phrase	-8692
▁season	-8693
▁sphere	-8694
▁Silicon	-8695
▁breathe	-8696
▁causing	-8697
▁frankly	-8698
▁pushing	-8699
▁younger	-8700
▁presence	-8701
▁transfer	-8702
▁Basically	-8703
▁insurance	-8704
▁uncertain	-8705
▁greenhouse	-8706
▁mechanical	-8707
▁surrounded	-8708
▁conventional	-8709
▁mathematical	-8710
MS	-8711
OL	-8712
do	-8713
hh	-8714
ivi	-8715
net	-8716
roc	-8717
vas	-8718
aeda	-8719
aron	-8720
olar	-8721
orus	-8722
rors	-8723
rous	-8724
tery	-8725
umps	-8726
▁Mur	-8727
▁Pop	-8728
▁Quỹ	-8729
▁Sir	-8730
▁Wil	-8731
▁rub	-8732
worth	-8733
▁bias	-8734
▁cous	-8735
▁ears	-8736
▁kick	-8737
▁lets	-8738
▁lồng	-8739
▁vạch	-8740
▁xuân	-8741
struct	-8742
▁5,000	-8743
▁Jesus	-8744
▁digit	-8745
▁dress	-8746
▁faced	-8747
▁likes	-8748
▁sheep	-8749
▁thung	-8750
▁tribe	-8751
▁20,000	-8752
▁athlet	-8753
▁deaths	-8754
▁latest	-8755
▁nurses	-8756
▁papers	-8757
▁rating	-8758
▁remove	-8759
▁careful	-8760
▁collaps	-8761
▁finance	-8762
▁fingers	-8763
▁housing	-8764
▁methods	-8765
▁mystery	-8766
▁outcome	-8767
▁visible	-8768
▁academic	-8769
▁agencies	-8770
▁apartment	-8771
▁continued	-8772
▁diagnosed	-8773
▁naturally	-8774
▁religions	-8775
▁strangers	-8776
▁antibiotics	-8777
▁educational	-8778
ima	-8779
rah	-8780
▁cọ	-8781
▁lỡ	-8782
▁na	-8783
▁rã	-8784
case	-8785
fish	-8786
ingu	-8787
ione	-8788
opes	-8789
▁Had	-8790
▁Lak	-8791
▁Mom	-8792
▁Nhĩ	-8793
▁Rad	-8794
▁Tay	-8795
▁alb	-8796
▁hãm	-8797
▁ped	-8798
▁raw	-8799
▁sét	-8800
▁xăm	-8801
akers	-8802
icted	-8803
riger	-8804
think	-8805
▁1999	-8806
▁Five	-8807
▁List	-8808
▁Zimb	-8809
▁cast	-8810
▁chọc	-8811
▁giọt	-8812
▁grab	-8813
▁logo	-8814
▁wise	-8815
asseng	-8816
▁Clint	-8817
▁Delhi	-8818
▁Ngoài	-8819
▁Peace	-8820
▁Union	-8821
▁huynh	-8822
▁lying	-8823
▁plate	-8824
▁taste	-8825
▁triệt	-8826
▁Tanzan	-8827
▁Valley	-8828
▁adoles	-8829
▁aftern	-8830
▁hearts	-8831
▁inject	-8832
▁spoken	-8833
▁struck	-8834
▁thượng	-8835
▁whales	-8836
▁Eastern	-8837
▁classic	-8838
▁clothes	-8839
▁offered	-8840
▁passeng	-8841
▁sensors	-8842
▁violent	-8843
▁Republic	-8844
▁Research	-8845
▁maintain	-8846
▁outcomes	-8847
▁wherever	-8848
▁customers	-8849
▁efficiency	-8850
▁engagement	-8851
▁fascinated	-8852
▁interactions	-8853
BA	-8854
sa	-8855
tô	-8856
bal	-8857
osc	-8858
▁38	-8859
▁44	-8860
▁48	-8861
▁BJ	-8862
▁Sĩ	-8863
▁mi	-8864
▁vờ	-8865
anth	-8866
cred	-8867
hile	-8868
lock	-8869
ooth	-8870
utch	-8871
▁Han	-8872
▁NGO	-8873
▁Net	-8874
▁Sus	-8875
▁bóc	-8876
▁dop	-8877
▁hur	-8878
▁léo	-8879
▁vòi	-8880
edded	-8881
ician	-8882
isher	-8883
opath	-8884
▁2012	-8885
▁Budd	-8886
▁Cháu	-8887
▁Cons	-8888
▁Giải	-8889
▁Hill	-8890
▁Jill	-8891
▁Rand	-8892
▁acid	-8893
▁diox	-8894
▁tort	-8895
▁vert	-8896
owered	-8897
usions	-8898
▁Lewis	-8899
▁White	-8900
▁blank	-8901
▁cards	-8902
▁compl	-8903
▁coral	-8904
▁datab	-8905
▁hotel	-8906
▁pharm	-8907
▁shake	-8908
▁theme	-8909
▁truck	-8910
▁Disney	-8911
▁Fellow	-8912
▁Wright	-8913
▁button	-8914
▁diplom	-8915
▁drives	-8916
▁heaven	-8917
▁narrow	-8918
▁neuron	-8919
▁phosph	-8920
▁portra	-8921
▁retire	-8922
▁shadow	-8923
▁signed	-8924
▁spring	-8925
▁Finally	-8926
▁figures	-8927
▁scratch	-8928
▁section	-8929
▁whereas	-8930
▁windows	-8931
▁concepts	-8932
▁criminal	-8933
▁obsessed	-8934
▁reaching	-8935
▁recorded	-8936
▁refriger	-8937
▁Alexander	-8938
▁Palestine	-8939
▁component	-8940
▁functions	-8941
▁furniture	-8942
▁selection	-8943
▁teenagers	-8944
▁contribute	-8945
▁dictionary	-8946
▁vulnerability	-8947
▁GG	-8948
▁Si	-8949
▁WK	-8950
▁bê	-8951
▁tê	-8952
▁uy	-8953
▁đc	-8954
▁ẩm	-8955
aran	-8956
iday	-8957
uous	-8958
usal	-8959
utan	-8960
ylon	-8961
▁Squ	-8962
▁Sức	-8963
▁Tre	-8964
▁gor	-8965
▁gut	-8966
▁quạ	-8967
house	-8968
ierra	-8969
lobal	-8970
mates	-8971
romos	-8972
stage	-8973
stone	-8974
▁Bell	-8975
▁Jord	-8976
▁Matt	-8977
▁club	-8978
▁knee	-8979
▁leap	-8980
▁lăng	-8981
▁móng	-8982
▁surf	-8983
▁tivi	-8984
▁vịnh	-8985
arency	-8986
ietnam	-8987
veness	-8988
▁Antar	-8989
▁House	-8990
▁Human	-8991
▁Sarah	-8992
▁Simon	-8993
▁initi	-8994
▁stack	-8995
▁surve	-8996
▁tight	-8997
▁trend	-8998
forward	-8999
▁France	-9000
▁behave	-9001
▁deploy	-9002
▁explos	-9003
▁frozen	-9004
▁limits	-9005
▁marath	-9006
▁relate	-9007
▁Wolfram	-9008
▁conserv	-9009
▁existed	-9010
▁guarant	-9011
▁happier	-9012
▁library	-9013
▁poorest	-9014
▁receive	-9015
▁Brooklyn	-9016
▁equation	-9017
▁traveled	-9018
▁intuitive	-9019
▁precisely	-9020
▁translate	-9021
▁commitment	-9022
▁historical	-9023
▁volunteers	-9024
▁application	-9025
▁distributed	-9026
▁ingredients	-9027
▁evolutionary	-9028
▁technological	-9029
-2	-9030
eo	-9031
▁Ừ	-9032
asm	-9033
nik	-9034
▁Av	-9035
▁CP	-9036
▁Cá	-9037
▁Tư	-9038
▁mỳ	-9039
▁ái	-9040
▁Đo	-9041
ague	-9042
anny	-9043
etti	-9044
gers	-9045
inda	-9046
ogen	-9047
yard	-9048
▁Rog	-9049
▁Ten	-9050
▁Tác	-9051
▁Unf	-9052
▁kìa	-9053
▁lui	-9054
▁tro	-9055
▁tuỷ	-9056
▁tựu	-9057
▁vứt	-9058
itors	-9059
▁Nick	-9060
▁Play	-9061
▁Turn	-9062
▁army	-9063
▁bran	-9064
▁chằm	-9065
▁chớp	-9066
▁clus	-9067
▁load	-9068
▁mail	-9069
▁pour	-9070
▁tube	-9071
▁zoom	-9072
▁Đảng	-9073
ration	-9074
yright	-9075
▁Bible	-9076
▁Hawai	-9077
▁crash	-9078
▁curve	-9079
▁depth	-9080
▁evalu	-9081
▁fixed	-9082
▁flood	-9083
▁infin	-9084
▁khiêm	-9085
▁polar	-9086
▁recyc	-9087
▁seeds	-9088
▁split	-9089
▁yield	-9090
▁Arabic	-9091
▁Nathan	-9092
▁chuông	-9093
▁interf	-9094
▁invite	-9095
▁tribes	-9096
▁volume	-9097
aneously	-9098
▁Central	-9099
▁Vietnam	-9100
▁airport	-9101
▁cheaper	-9102
▁chromos	-9103
▁disturb	-9104
▁evening	-9105
▁license	-9106
▁nowhere	-9107
▁robotic	-9108
▁speaker	-9109
▁touched	-9110
▁Scotland	-9111
▁achieved	-9112
▁captured	-9113
▁combined	-9114
▁district	-9115
▁embedded	-9116
▁afternoon	-9117
▁ignorance	-9118
▁practices	-9119
▁statement	-9120
▁appreciate	-9121
▁inequality	-9122
▁journalist	-9123
▁populations	-9124
▁dramatically	-9125
ni	-9126
vy	-9127
lem	-9128
nic	-9129
xin	-9130
▁JH	-9131
▁Sk	-9132
▁xà	-9133
aurs	-9134
mble	-9135
zler	-9136
▁000	-9137
▁Pet	-9138
▁aim	-9139
▁ate	-9140
▁bốc	-9141
▁nếp	-9142
▁đóm	-9143
openh	-9144
rence	-9145
▁1984	-9146
▁2030	-9147
▁Bước	-9148
▁Fort	-9149
▁News	-9150
▁Rome	-9151
▁Thưa	-9152
▁frag	-9153
▁lưỡi	-9154
▁ngẩn	-9155
▁võng	-9156
▁Moore	-9157
▁absor	-9158
▁angle	-9159
▁colum	-9160
▁dozen	-9161
▁luồng	-9162
▁nhiễu	-9163
▁paras	-9164
▁rooms	-9165
▁smoke	-9166
▁whale	-9167
▁Đường	-9168
erences	-9169
inction	-9170
▁Intern	-9171
▁Johnny	-9172
▁Julian	-9173
▁Really	-9174
▁Thường	-9175
▁extent	-9176
▁fossil	-9177
▁needle	-9178
▁surely	-9179
▁tested	-9180
▁worker	-9181
▁herself	-9182
▁stretch	-9183
▁wanting	-9184
▁Virginia	-9185
▁disorder	-9186
▁dopamine	-9187
▁occurred	-9188
▁trillion	-9189
▁Parkinson	-9190
▁destroyed	-9191
▁elections	-9192
▁increases	-9193
▁accessible	-9194
▁optimistic	-9195
▁photography	-9196
▁successfully	-9197
▁Unfortunately	-9198
HA	-9199
ba	-9200
atr	-9201
che	-9202
eps	-9203
▁ug	-9204
anes	-9205
illy	-9206
oman	-9207
▁Che	-9208
▁Hoà	-9209
▁Mir	-9210
▁Tah	-9211
▁Văn	-9212
▁bồi	-9213
▁dịp	-9214
▁ron	-9215
▁ven	-9216
otion	-9217
▁Beij	-9218
▁Chưa	-9219
▁Cont	-9220
▁Dian	-9221
▁Ethi	-9222
▁Luật	-9223
▁ages	-9224
▁bull	-9225
▁chap	-9226
▁gạch	-9227
▁iPod	-9228
▁tack	-9229
▁thắt	-9230
▁đoạt	-9231
Global	-9232
ivered	-9233
▁aband	-9234
▁enemy	-9235
▁flies	-9236
▁hoành	-9237
▁kiêng	-9238
▁ngưng	-9239
▁toler	-9240
▁tweet	-9241
related	-9242
▁Columb	-9243
▁eradic	-9244
▁hungry	-9245
▁plenty	-9246
▁Teszler	-9247
▁anticip	-9248
▁appears	-9249
▁aspects	-9250
▁charity	-9251
▁constit	-9252
▁extinct	-9253
▁imaging	-9254
▁quarter	-9255
▁raising	-9256
▁remains	-9257
▁removed	-9258
▁surgeon	-9259
▁engaging	-9260
▁imagined	-9261
▁meetings	-9262
▁occasion	-9263
▁stations	-9264
▁villages	-9265
▁Tasmanian	-9266
▁household	-9267
▁intention	-9268
▁protected	-9269
▁reference	-9270
▁standards	-9271
▁conservation	-9272
▁expectations	-9273
bed	-9274
cel	-9275
iny	-9276
tes	-9277
▁Os	-9278
▁ah	-9279
▁ox	-9280
▁sọ	-9281
▁ấu	-9282
airs	-9283
appy	-9284
bits	-9285
izab	-9286
▁10-	-9287
▁Aug	-9288
▁Aut	-9289
▁Far	-9290
▁Fer	-9291
▁Jud	-9292
▁Six	-9293
▁Syl	-9294
▁Xem	-9295
▁blo	-9296
▁der	-9297
▁gậy	-9298
▁ngớ	-9299
▁tuỵ	-9300
▁Đơn	-9301
▁đúc	-9302
eness	-9303
inals	-9304
ounce	-9305
▁Giai	-9306
▁Hung	-9307
▁Thêm	-9308
▁blow	-9309
▁icon	-9310
▁nhóc	-9311
▁đuối	-9312
▁đôla	-9313
Americ	-9314
ounced	-9315
▁Alpha	-9316
▁abund	-9317
▁banks	-9318
▁champ	-9319
▁jihad	-9320
▁march	-9321
▁proto	-9322
▁score	-9323
▁tries	-9324
▁weigh	-9325
izabeth	-9326
▁Argent	-9327
▁Copenh	-9328
▁assist	-9329
▁evolve	-9330
▁oldest	-9331
▁profit	-9332
▁silent	-9333
▁spinal	-9334
▁bicycle	-9335
▁consume	-9336
▁decline	-9337
▁feeding	-9338
▁instant	-9339
▁Tanzania	-9340
▁breaking	-9341
▁director	-9342
▁mosquito	-9343
▁unlikely	-9344
▁Christian	-9345
▁Elizabeth	-9346
▁TEDGlobal	-9347
▁celebrate	-9348
▁describes	-9349
▁Copenhagen	-9350
▁exploration	-9351
▁instruments	-9352
ae	-9353
Sah	-9354
ado	-9355
hop	-9356
opa	-9357
ửng	-9358
▁Uy	-9359
▁Wa	-9360
▁bể	-9361
▁mỡ	-9362
▁rỉ	-9363
▁xé	-9364
amas	-9365
gend	-9366
irds	-9367
lims	-9368
oing	-9369
rich	-9370
▁Ell	-9371
▁Mod	-9372
▁Moz	-9373
▁Sal	-9374
▁Thì	-9375
▁Trở	-9376
▁hít	-9377
▁hận	-9378
▁Đứa	-9379
▁đậm	-9380
class	-9381
while	-9382
xiety	-9383
▁Free	-9384
▁Phát	-9385
▁Quay	-9386
▁ants	-9387
▁biom	-9388
▁boom	-9389
▁hoãn	-9390
▁kiss	-9391
▁pace	-9392
▁rely	-9393
▁Julia	-9394
▁Leban	-9395
▁Qatar	-9396
▁craft	-9397
▁decre	-9398
▁fifth	-9399
▁hemis	-9400
▁proof	-9401
▁scary	-9402
iveness	-9403
ustrial	-9404
▁Econom	-9405
▁Mother	-9406
▁Nature	-9407
▁Sierra	-9408
▁agenda	-9409
▁chosen	-9410
▁genius	-9411
▁lovely	-9412
▁missed	-9413
▁rising	-9414
▁slides	-9415
▁Olympic	-9416
▁anthrop	-9417
▁concert	-9418
▁divided	-9419
▁efforts	-9420
▁impress	-9421
▁prosper	-9422
▁savings	-9423
▁suicide	-9424
▁appeared	-9425
▁morality	-9426
▁provided	-9427
▁speakers	-9428
▁breathing	-9429
▁classical	-9430
▁contribut	-9431
▁delivered	-9432
▁paintings	-9433
▁presented	-9434
▁telescope	-9435
▁demonstrate	-9436
▁International	-9437
tr	-9438
ym	-9439
ât	-9440
ẽn	-9441
aks	-9442
ani	-9443
bin	-9444
▁vả	-9445
anna	-9446
bage	-9447
east	-9448
erom	-9449
ngue	-9450
onds	-9451
quar	-9452
ulse	-9453
▁350	-9454
▁EDI	-9455
▁Giá	-9456
▁Hir	-9457
▁Hợp	-9458
▁Sky	-9459
▁Sur	-9460
▁Ush	-9461
▁Vật	-9462
▁ghê	-9463
▁nàn	-9464
▁sed	-9465
berry	-9466
state	-9467
▁Bert	-9468
▁Camp	-9469
▁Hall	-9470
▁Hành	-9471
▁June	-9472
▁Line	-9473
▁Moon	-9474
▁Nico	-9475
▁cake	-9476
▁debt	-9477
▁hổng	-9478
▁ngột	-9479
▁scri	-9480
▁tiệm	-9481
▁Động	-9482
called	-9483
engine	-9484
hammad	-9485
unning	-9486
usalem	-9487
▁Jones	-9488
▁accum	-9489
▁bones	-9490
▁chest	-9491
▁drone	-9492
▁finds	-9493
▁flour	-9494
▁fluid	-9495
▁orbit	-9496
▁sheet	-9497
▁utter	-9498
▁agreed	-9499
▁appeal	-9500
▁crying	-9501
▁finger	-9502
▁ignore	-9503
▁injury	-9504
▁intent	-9505
▁intrig	-9506
▁myster	-9507
▁pherom	-9508
▁placed	-9509
▁satisf	-9510
▁scenar	-9511
▁thrown	-9512
▁Clinton	-9513
▁Nothing	-9514
▁amongst	-9515
▁beliefs	-9516
▁comprom	-9517
▁dioxide	-9518
▁females	-9519
▁orchest	-9520
▁privacy	-9521
▁Children	-9522
▁Muhammad	-9523
▁Palestin	-9524
▁administ	-9525
▁cartoons	-9526
▁measured	-9527
▁properly	-9528
▁recovery	-9529
▁Jerusalem	-9530
▁algorithm	-9531
▁exploring	-9532
▁footprint	-9533
▁instantly	-9534
▁connecting	-9535
▁performing	-9536
▁rainforest	-9537
▁neuroscience	-9538
▁participants	-9539
CA	-9540
ECD	-9541
isy	-9542
nes	-9543
rix	-9544
▁96	-9545
▁Id	-9546
▁Up	-9547
fast	-9548
imal	-9549
oded	-9550
onna	-9551
raph	-9552
tail	-9553
uyến	-9554
▁130	-9555
▁192	-9556
▁Chú	-9557
▁Khá	-9558
▁Men	-9559
▁bầy	-9560
▁gom	-9561
▁gãy	-9562
▁nhủ	-9563
▁quỷ	-9564
▁vội	-9565
▁wra	-9566
adesh	-9567
ckets	-9568
cohol	-9569
ennis	-9570
iform	-9571
inger	-9572
izoph	-9573
lings	-9574
power	-9575
using	-9576
▁Doug	-9577
▁OECD	-9578
▁Phot	-9579
▁Việt	-9580
▁beer	-9581
▁canh	-9582
▁cens	-9583
▁file	-9584
▁fool	-9585
▁lens	-9586
▁pupp	-9587
▁tatt	-9588
▁zone	-9589
▁điền	-9590
arents	-9591
▁4,000	-9592
▁Phòng	-9593
▁anger	-9594
▁coach	-9595
▁grows	-9596
▁nghẽn	-9597
▁nhánh	-9598
▁pleas	-9599
▁reson	-9600
▁suspe	-9601
▁title	-9602
▁units	-9603
▁youth	-9604
inating	-9605
through	-9606
▁Steven	-9607
▁Sylvia	-9608
▁chuyền	-9609
▁combat	-9610
▁drones	-9611
▁halluc	-9612
▁robust	-9613
▁talent	-9614
▁anxiety	-9615
▁essence	-9616
▁failing	-9617
▁granted	-9618
▁hackers	-9619
▁imagery	-9620
▁neither	-9621
▁sensory	-9622
▁unclear	-9623
▁Remember	-9624
▁external	-9625
▁marathon	-9626
▁northern	-9627
▁consumers	-9628
▁corporate	-9629
▁curiosity	-9630
▁depending	-9631
▁generated	-9632
▁musicians	-9633
▁sculpture	-9634
▁boundaries	-9635
▁functional	-9636
▁microscope	-9637
▁cooperation	-9638
▁explanation	-9639
▁institution	-9640
▁represented	-9641
▁presentation	-9642
▁surprisingly	-9643
RA	-9644
aci	-9645
auc	-9646
bru	-9647
des	-9648
iac	-9649
oma	-9650
ule	-9651
▁72	-9652
▁Po	-9653
▁UC	-9654
▁py	-9655
aint	-9656
aire	-9657
conf	-9658
lies	-9659
ulum	-9660
▁Bud	-9661
▁Màu	-9662
▁Nhờ	-9663
▁bẩm	-9664
▁gel	-9665
▁hat	-9666
▁vất	-9667
agger	-9668
capes	-9669
cover	-9670
ested	-9671
flies	-9672
leton	-9673
▁Benj	-9674
▁axis	-9675
▁cafe	-9676
▁cats	-9677
▁cord	-9678
▁emer	-9679
▁flew	-9680
▁gien	-9681
▁giáp	-9682
▁giật	-9683
▁hoan	-9684
▁mile	-9685
▁perm	-9686
▁tent	-9687
▁ương	-9688
ements	-9689
erable	-9690
ournal	-9691
▁Broad	-9692
▁adopt	-9693
▁apple	-9694
▁chaos	-9695
▁coord	-9696
▁drill	-9697
▁minor	-9698
▁pione	-9699
▁spark	-9700
▁spell	-9701
▁vital	-9702
Saharan	-9703
▁Bosnia	-9704
▁Zimbab	-9705
▁attend	-9706
▁extrem	-9707
▁microp	-9708
▁proper	-9709
▁rocket	-9710
▁script	-9711
▁sticks	-9712
▁Babylon	-9713
▁letting	-9714
▁restore	-9715
▁vessels	-9716
▁Leonardo	-9717
▁dolphins	-9718
▁elephant	-9719
▁floating	-9720
▁involves	-9721
▁minister	-9722
▁paradigm	-9723
▁policies	-9724
▁returned	-9725
▁schizoph	-9726
▁shopping	-9727
▁Something	-9728
▁committed	-9729
▁copyright	-9730
▁dinosaurs	-9731
▁inspiring	-9732
▁affordable	-9733
▁motivation	-9734
▁struggling	-9735
▁recognition	-9736
▁neighborhoods	-9737
gu	-9738
PTC	-9739
isa	-9740
▁42	-9741
▁AK	-9742
▁Sử	-9743
▁bẻ	-9744
▁bồ	-9745
aled	-9746
coln	-9747
imet	-9748
mbur	-9749
oton	-9750
rome	-9751
▁1.5	-9752
▁193	-9753
▁Has	-9754
▁Hắn	-9755
▁Lab	-9756
▁Nat	-9757
▁dại	-9758
▁dệt	-9759
▁mầm	-9760
▁pra	-9761
▁súp	-9762
▁tam	-9763
▁đốm	-9764
ended	-9765
iters	-9766
ocent	-9767
otton	-9768
▁Math	-9769
▁Show	-9770
▁Sund	-9771
▁chày	-9772
▁coun	-9773
▁firm	-9774
▁flip	-9775
▁till	-9776
▁ugly	-9777
▁Leone	-9778
▁Santa	-9779
▁Space	-9780
▁Ushah	-9781
▁actor	-9782
▁album	-9783
▁bears	-9784
▁court	-9785
▁crops	-9786
▁delic	-9787
▁falls	-9788
▁foods	-9789
▁khoăn	-9790
▁recom	-9791
▁sales	-9792
▁tasks	-9793
▁traum	-9794
▁trúng	-9795
uration	-9796
▁Indeed	-9797
▁Should	-9798
▁Venice	-9799
▁adjust	-9800
▁cheese	-9801
▁hambur	-9802
▁locked	-9803
▁orange	-9804
▁rescue	-9805
▁richer	-9806
▁stable	-9807
▁stages	-9808
▁stroke	-9809
▁trends	-9810
▁Lincoln	-9811
▁Muslims	-9812
▁Through	-9813
▁alcohol	-9814
▁balloon	-9815
▁carried	-9816
▁corresp	-9817
▁crucial	-9818
▁lecture	-9819
▁prepare	-9820
▁synthes	-9821
▁Ethiopia	-9822
▁Zimbabwe	-9823
▁baseball	-9824
▁contains	-9825
▁features	-9826
▁reported	-9827
▁Greenland	-9828
▁depressed	-9829
▁separated	-9830
▁uncomfort	-9831
▁apparently	-9832
▁expectancy	-9833
▁protecting	-9834
▁recognized	-9835
▁researcher	-9836
▁ridiculous	-9837
▁personality	-9838
▁underground	-9839
▁automatically	-9840
▁characteristics	-9841
LA	-9842
tt	-9843
aza	-9844
ema	-9845
iza	-9846
rin	-9847
rof	-9848
see	-9849
sex	-9850
▁86	-9851
▁ào	-9852
ache	-9853
mbly	-9854
pest	-9855
roid	-9856
▁Dub	-9857
▁Giả	-9858
▁Out	-9859
▁ink	-9860
▁lột	-9861
▁ngư	-9862
▁nhị	-9863
▁nón	-9864
▁phô	-9865
▁rạp	-9866
▁sle	-9867
▁vòm	-9868
▁wip	-9869
▁Đặc	-9870
adays	-9871
allel	-9872
bered	-9873
keley	-9874
▁Fred	-9875
▁Hoàn	-9876
▁bubb	-9877
▁dies	-9878
▁dign	-9879
▁enzy	-9880
▁excl	-9881
▁hông	-9882
▁nets	-9883
▁phốt	-9884
▁subs	-9885
▁tied	-9886
▁tùng	-9887
▁xoắn	-9888
▁xách	-9889
▁đụng	-9890
▁Apoll	-9891
▁Matth	-9892
▁Voice	-9893
▁cryst	-9894
▁embra	-9895
▁guide	-9896
▁holds	-9897
▁phiêu	-9898
▁sướng	-9899
▁trash	-9900
▁unbel	-9901
▁usual	-9902
▁yours	-9903
▁Albert	-9904
▁Arctic	-9905
▁August	-9906
▁colony	-9907
▁ensure	-9908
▁linked	-9909
▁monkey	-9910
▁paraly	-9911
▁thiêng	-9912
▁General	-9913
▁Pacific	-9914
▁Somalia	-9915
▁defense	-9916
▁density	-9917
▁disrupt	-9918
▁distant	-9919
▁diverse	-9920
▁fathers	-9921
▁impacts	-9922
▁muscles	-9923
▁Jonathan	-9924
▁Ushahidi	-9925
▁dominant	-9926
▁football	-9927
▁improved	-9928
▁musician	-9929
▁organize	-9930
▁parallel	-9931
▁produces	-9932
▁sleeping	-9933
▁textbook	-9934
▁wireless	-9935
▁continues	-9936
▁permanent	-9937
▁Department	-9938
▁Geographic	-9939
▁afterwards	-9940
▁architects	-9941
▁directions	-9942
▁strategies	-9943
▁interacting	-9944
▁agricultural	-9945
▁transparency	-9946
▁uncomfortable	-9947
ava	-9948
bby	-9949
hry	-9950
lor	-9951
uba	-9952
▁AR	-9953
▁Cr	-9954
▁SS	-9955
▁nu	-9956
adel	-9957
ocal	-9958
phia	-9959
udes	-9960
west	-9961
▁140	-9962
▁2.0	-9963
▁McD	-9964
▁Nền	-9965
▁Que	-9966
▁Tok	-9967
▁Tun	-9968
▁Vẫn	-9969
▁băn	-9970
▁cas	-9971
▁ghé	-9972
▁nom	-9973
▁rap	-9974
▁rìa	-9975
▁rộn	-9976
▁uốn	-9977
▁vặt	-9978
▁Đạo	-9979
PTCHA	-9980
archy	-9981
cence	-9982
otter	-9983
▁Hong	-9984
▁Quân	-9985
▁Tính	-9986
▁demo	-9987
▁pump	-9988
▁tịch	-9989
▁whis	-9990
astics	-9991
opardy	-9992
rained	-9993
▁Bangl	-9994
▁Colle	-9995
▁Mount	-9996
▁Never	-9997
▁abuse	-9998
▁aside	-9999
▁brown	-10000
▁dynam	-10001
▁helic	-10002
▁honey	-10003
▁imper	-10004
▁mixed	-10005
▁nutri	-10006
▁plain	-10007
▁tears	-10008
▁vương	-10009
aghetti	-10010
century	-10011
▁Church	-10012
▁Colomb	-10013
▁agency	-10014
▁barely	-10015
▁capita	-10016
▁curric	-10017
▁enable	-10018
▁escape	-10019
▁filter	-10020
▁neural	-10021
▁repeat	-10022
▁secure	-10023
▁subtle	-10024
▁delight	-10025
▁entered	-10026
▁fishing	-10027
▁lawyers	-10028
▁printed	-10029
▁silicon	-10030
▁suppose	-10031
▁visited	-10032
▁vitamin	-10033
▁Berkeley	-10034
▁astronom	-10035
▁attached	-10036
▁controls	-10037
▁creature	-10038
▁equality	-10039
▁estimate	-10040
▁homeless	-10041
▁laughing	-10042
▁lighting	-10043
▁overcome	-10044
▁provides	-10045
▁stereoty	-10046
▁calculate	-10047
▁emergency	-10048
▁protocell	-10049
▁searching	-10050
▁disappoint	-10051
▁electronic	-10052
▁explaining	-10053
▁Neanderthal	-10054
▁controlling	-10055
▁improvement	-10056
▁predictions	-10057
▁psychological	-10058
hm	-10059
oe	-10060
arp	-10061
iab	-10062
spe	-10063
yer	-10064
▁Ig	-10065
▁kề	-10066
▁lọ	-10067
▁xứ	-10068
agon	-10069
ecut	-10070
erry	-10071
lear	-10072
sell	-10073
ynth	-10074
▁185	-10075
▁Gil	-10076
▁Kam	-10077
▁Não	-10078
▁Oct	-10079
▁cig	-10080
▁dow	-10081
▁dập	-10082
▁mốc	-10083
▁ngụ	-10084
▁ooh	-10085
▁sin	-10086
▁toy	-10087
irect	-10088
oding	-10089
orous	-10090
puter	-10091
▁Edin	-10092
▁Norm	-10093
▁Shir	-10094
▁Sput	-10095
▁biếm	-10096
▁cảng	-10097
▁diam	-10098
▁drag	-10099
▁east	-10100
▁frog	-10101
▁iPad	-10102
▁khan	-10103
▁khen	-10104
▁mice	-10105
▁nhấp	-10106
▁plot	-10107
▁seek	-10108
▁soup	-10109
▁thắn	-10110
▁thốt	-10111
azeera	-10112
▁Korea	-10113
▁Third	-10114
▁Tokyo	-10115
▁aesth	-10116
▁array	-10117
▁burst	-10118
▁explo	-10119
▁khùng	-10120
▁legis	-10121
▁opens	-10122
▁pilot	-10123
▁purch	-10124
▁renew	-10125
▁stone	-10126
▁stops	-10127
▁style	-10128
▁tempt	-10129
▁veter	-10130
▁views	-10131
liament	-10132
unction	-10133
▁Copern	-10134
▁Starbu	-10135
▁chairs	-10136
▁mining	-10137
▁output	-10138
▁sensor	-10139
▁served	-10140
▁tricks	-10141
▁upload	-10142
▁Cameron	-10143
▁elderly	-10144
▁painted	-10145
▁pretend	-10146
▁recover	-10147
▁Columbia	-10148
▁globally	-10149
▁psychiat	-10150
▁repeated	-10151
▁treating	-10152
▁unbeliev	-10153
▁Argentina	-10154
▁Edinburgh	-10155
▁colleague	-10156
▁encounter	-10157
▁spaghetti	-10158
▁virtually	-10159
▁identified	-10160
▁assumptions	-10161
▁electronics	-10162
▁uncertainty	-10163
▁productivity	-10164
▁demonstration	-10165
rr	-10166
low	-10167
▁2,	-10168
▁64	-10169
▁AM	-10170
▁Nữ	-10171
▁SO	-10172
▁kẽ	-10173
▁kệ	-10174
▁ủi	-10175
amie	-10176
icks	-10177
igan	-10178
omic	-10179
osal	-10180
uits	-10181
urse	-10182
utes	-10183
▁1,5	-10184
▁187	-10185
▁Bet	-10186
▁Cra	-10187
▁Ear	-10188
▁Quy	-10189
▁Win	-10190
▁búa	-10191
▁bực	-10192
▁fet	-10193
▁gai	-10194
▁hol	-10195
▁kem	-10196
▁kẹp	-10197
▁tôm	-10198
▁wee	-10199
▁đệm	-10200
anish	-10201
ctica	-10202
itous	-10203
negie	-10204
omous	-10205
▁3000	-10206
▁Marg	-10207
▁Phật	-10208
▁Rach	-10209
▁Rose	-10210
▁chíp	-10211
▁chóc	-10212
▁củng	-10213
▁dism	-10214
▁dive	-10215
▁emph	-10216
▁fung	-10217
▁laid	-10218
▁limb	-10219
▁meal	-10220
▁nhàm	-10221
▁susp	-10222
▁sửng	-10223
abetes	-10224
phones	-10225
▁Alice	-10226
▁Inter	-10227
▁Marco	-10228
▁Roger	-10229
▁Stage	-10230
▁favel	-10231
▁khoai	-10232
▁loves	-10233
▁persu	-10234
▁prime	-10235
▁therm	-10236
▁thumb	-10237
▁toxic	-10238
ogether	-10239
section	-10240
▁Hawaii	-10241
▁Luther	-10242
▁Number	-10243
▁Square	-10244
▁assets	-10245
▁defend	-10246
▁excell	-10247
▁farmer	-10248
▁improv	-10249
▁rarely	-10250
▁stores	-10251
▁thoáng	-10252
▁traged	-10253
▁trucks	-10254
▁victim	-10255
adelphia	-10256
▁Everest	-10257
▁Israeli	-10258
▁Kennedy	-10259
▁Sputnik	-10260
▁closing	-10261
▁diagram	-10262
▁drivers	-10263
▁footage	-10264
▁helicop	-10265
▁liberal	-10266
▁quantum	-10267
▁reduced	-10268
▁staying	-10269
▁Carnegie	-10270
▁Minister	-10271
▁darkness	-10272
▁diabetes	-10273
▁drinking	-10274
▁shocking	-10275
▁strongly	-10276
▁Starbucks	-10277
▁accidents	-10278
▁highlight	-10279
▁nutrition	-10280
▁recording	-10281
▁Antarctica	-10282
▁hemisphere	-10283
▁inevitable	-10284
▁phosphorus	-10285
▁prosthetic	-10286
▁resilience	-10287
▁suggesting	-10288
▁vegetables	-10289
▁disappeared	-10290
▁manufacture	-10291
▁schizophren	-10292
▁translation	-10293
▁Philadelphia	-10294
▁instructions	-10295
▁collaborative	-10296
zu	-10297
elf	-10298
tra	-10299
ura	-10300
▁98	-10301
▁DJ	-10302
▁UN	-10303
▁mớ	-10304
▁rỡ	-10305
arre	-10306
enly	-10307
olic	-10308
uity	-10309
wind	-10310
▁Dad	-10311
▁Mùa	-10312
▁Nin	-10313
▁Sud	-10314
▁Sáu	-10315
▁Unt	-10316
▁awk	-10317
▁cáp	-10318
▁gạt	-10319
▁hái	-10320
▁meg	-10321
▁obl	-10322
▁phe	-10323
▁ray	-10324
▁tăm	-10325
▁unp	-10326
▁vịt	-10327
▁xộn	-10328
isons	-10329
maker	-10330
oning	-10331
osure	-10332
▁Anas	-10333
▁Back	-10334
▁Coke	-10335
▁Nair	-10336
▁Nike	-10337
▁None	-10338
▁Tell	-10339
▁Yves	-10340
▁clar	-10341
▁eleg	-10342
▁fulf	-10343
▁huýt	-10344
▁melt	-10345
▁neat	-10346
▁peer	-10347
▁phơi	-10348
▁sits	-10349
▁sulf	-10350
▁thơm	-10351
▁trag	-10352
▁trùm	-10353
▁đinh	-10354
bruary	-10355
▁Tunis	-10356
▁begun	-10357
▁civic	-10358
▁crack	-10359
▁doors	-10360
▁drove	-10361
▁hyper	-10362
▁lifes	-10363
▁links	-10364
▁lions	-10365
▁outer	-10366
▁redef	-10367
▁tired	-10368
▁unpre	-10369
▁Apollo	-10370
▁Sunday	-10371
▁Within	-10372
▁borrow	-10373
▁choáng	-10374
▁fertil	-10375
▁fusion	-10376
▁inches	-10377
▁prices	-10378
▁pushed	-10379
▁scores	-10380
▁senior	-10381
▁shaped	-10382
▁Atlanta	-10383
▁Jazeera	-10384
▁affects	-10385
▁awkward	-10386
▁exposed	-10387
▁hitting	-10388
▁initial	-10389
▁leather	-10390
▁magical	-10391
▁monitor	-10392
▁parties	-10393
▁picking	-10394
▁scanner	-10395
▁session	-10396
▁Benjamin	-10397
▁February	-10398
▁activist	-10399
▁category	-10400
▁detailed	-10401
▁hormones	-10402
▁insights	-10403
▁shoulder	-10404
▁adventure	-10405
▁dedicated	-10406
▁passenger	-10407
▁physicist	-10408
▁reduction	-10409
▁sentences	-10410
▁compelling	-10411
▁influenced	-10412
12	-10413
IA	-10414
gi	-10415
kg	-10416
py	-10417
wr	-10418
ía	-10419
▁Ư	-10420
asa	-10421
bie	-10422
dam	-10423
dri	-10424
fly	-10425
kin	-10426
lan	-10427
rot	-10428
ups	-10429
usi	-10430
▁3.	-10431
▁41	-10432
▁BR	-10433
▁Kì	-10434
▁NL	-10435
▁Vô	-10436
▁Đỏ	-10437
aves	-10438
coop	-10439
illa	-10440
ingo	-10441
pled	-10442
uten	-10443
▁2.5	-10444
▁Toà	-10445
▁dồn	-10446
▁enh	-10447
▁lux	-10448
▁mép	-10449
▁môt	-10450
▁đom	-10451
allow	-10452
owers	-10453
rency	-10454
▁1998	-10455
▁Khan	-10456
▁Ngôi	-10457
▁Penn	-10458
▁Rick	-10459
▁Rằng	-10460
▁Turk	-10461
▁bướm	-10462
▁dust	-10463
▁hier	-10464
▁ngục	-10465
▁nhét	-10466
▁odds	-10467
▁pink	-10468
▁sexy	-10469
▁tạng	-10470
▁tống	-10471
▁wing	-10472
edding	-10473
opatch	-10474
▁Fried	-10475
▁Kelly	-10476
▁Mitch	-10477
▁Tesla	-10478
▁Tháng	-10479
▁advoc	-10480
▁chief	-10481
▁dirty	-10482
▁dough	-10483
▁drawn	-10484
▁gonna	-10485
▁immun	-10486
▁legit	-10487
▁pyram	-10488
▁recru	-10489
▁relax	-10490
▁sauce	-10491
▁skull	-10492
▁thiền	-10493
▁ubiqu	-10494
▁ultra	-10495
▁wider	-10496
▁wound	-10497
attered	-10498
parents	-10499
▁Global	-10500
▁anesth	-10501
▁chướng	-10502
▁ending	-10503
▁execut	-10504
▁funded	-10505
▁garage	-10506
▁muscle	-10507
▁powers	-10508
children	-10509
ventions	-10510
▁College	-10511
▁Lebanon	-10512
▁Tempest	-10513
▁ceiling	-10514
▁hormone	-10515
▁revenue	-10516
▁spreads	-10517
▁welcome	-10518
▁Colombia	-10519
▁Jeopardy	-10520
▁crossing	-10521
▁dialogue	-10522
▁distract	-10523
▁facility	-10524
▁keyboard	-10525
▁openness	-10526
▁Nanopatch	-10527
▁anonymous	-10528
▁dependent	-10529
▁elsewhere	-10530
▁healthier	-10531
▁improving	-10532
▁privilege	-10533
▁suggested	-10534
▁telephone	-10535
▁curriculum	-10536
▁determined	-10537
▁governance	-10538
▁underlying	-10539
▁philosopher	-10540
▁probability	-10541
▁photographed	-10542
▁professionals	-10543
OX	-10544
cô	-10545
ẹo	-10546
ịt	-10547
▁Í	-10548
aws	-10549
bar	-10550
las	-10551
two	-10552
ulu	-10553
uts	-10554
wen	-10555
▁Ni	-10556
▁hé	-10557
▁âu	-10558
eren	-10559
fall	-10560
olas	-10561
viet	-10562
walk	-10563
▁Acc	-10564
▁FOX	-10565
▁Fed	-10566
▁Gar	-10567
▁Hol	-10568
▁Ire	-10569
▁Isn	-10570
▁Khu	-10571
▁Ooh	-10572
▁Sol	-10573
▁Tài	-10574
▁bug	-10575
▁cub	-10576
▁dịu	-10577
▁mưu	-10578
▁ngừ	-10579
▁râu	-10580
▁rèn	-10581
▁sav	-10582
▁xen	-10583
clock	-10584
gency	-10585
geria	-10586
igned	-10587
obile	-10588
unter	-10589
▁Army	-10590
▁Ivan	-10591
▁brut	-10592
▁drum	-10593
▁gieo	-10594
▁grat	-10595
▁irre	-10596
▁khẩn	-10597
▁labs	-10598
▁rail	-10599
▁rats	-10600
▁reef	-10601
▁sket	-10602
▁trèo	-10603
▁trọn	-10604
▁túng	-10605
▁vent	-10606
acular	-10607
apagos	-10608
employ	-10609
minute	-10610
raints	-10611
▁Italy	-10612
▁Watch	-10613
▁Water	-10614
▁phiến	-10615
▁prize	-10616
▁silly	-10617
▁triều	-10618
▁wheat	-10619
▁Scient	-10620
▁Soviet	-10621
▁Warren	-10622
▁adding	-10623
▁arrive	-10624
▁conven	-10625
▁layers	-10626
▁recept	-10627
▁scream	-10628
▁violin	-10629
▁Johnson	-10630
▁Obvious	-10631
▁Russian	-10632
▁Whether	-10633
▁chances	-10634
▁citizen	-10635
▁clients	-10636
▁convert	-10637
▁dignity	-10638
▁graphic	-10639
▁nonviol	-10640
▁ongoing	-10641
▁paradox	-10642
▁passing	-10643
▁persist	-10644
▁protest	-10645
▁pulling	-10646
▁rebuild	-10647
▁Anderson	-10648
▁Michigan	-10649
▁Movember	-10650
▁colonies	-10651
▁focusing	-10652
▁inherent	-10653
▁judgment	-10654
▁microbes	-10655
▁optimism	-10656
▁perceive	-10657
▁Galapagos	-10658
▁ancestors	-10659
▁backwards	-10660
▁confident	-10661
▁gathering	-10662
▁sacrifice	-10663
▁supermark	-10664
▁supported	-10665
▁additional	-10666
▁hypothesis	-10667
▁simplicity	-10668
▁smartphone	-10669
▁translated	-10670
▁expressions	-10671
▁breakthrough	-10672
ớc	-10673
bod	-10674
dig	-10675
izz	-10676
▁43	-10677
▁AO	-10678
▁Ca	-10679
▁IM	-10680
▁PH	-10681
▁Sn	-10682
▁Vũ	-10683
▁Wo	-10684
▁dê	-10685
ault	-10686
ding	-10687
eman	-10688
list	-10689
▁1.2	-10690
▁160	-10691
▁180	-10692
▁Cru	-10693
▁Hon	-10694
▁SMS	-10695
▁Sen	-10696
▁Spe	-10697
▁Tit	-10698
▁Tạo	-10699
▁Vol	-10700
▁bat	-10701
▁bón	-10702
▁hàn	-10703
▁hâm	-10704
▁ion	-10705
▁rỗi	-10706
▁tẩy	-10707
▁vần	-10708
▁đục	-10709
emics	-10710
itate	-10711
olars	-10712
spect	-10713
▁Comp	-10714
▁Dece	-10715
▁Joel	-10716
▁Make	-10717
▁Mass	-10718
▁Prof	-10719
▁bars	-10720
▁boss	-10721
▁cath	-10722
▁earn	-10723
▁glad	-10724
▁hill	-10725
▁hưng	-10726
▁mall	-10727
▁nurt	-10728
▁sườn	-10729
▁toys	-10730
apping	-10731
itudes	-10732
weeney	-10733
▁Susan	-10734
▁Under	-10735
▁disag	-10736
▁eaten	-10737
▁fuels	-10738
▁items	-10739
▁nurse	-10740
▁roots	-10741
▁spots	-10742
▁30,000	-10743
▁40,000	-10744
▁Bhutan	-10745
▁Kansas	-10746
▁Lakota	-10747
▁Listen	-10748
▁Rachel	-10749
▁assess	-10750
▁catast	-10751
▁comedy	-10752
▁hardly	-10753
▁lawyer	-10754
▁observ	-10755
▁settle	-10756
▁smooth	-10757
▁trains	-10758
▁traits	-10759
▁viewer	-10760
▁Beijing	-10761
▁Siberia	-10762
▁Spanish	-10763
▁chimpan	-10764
▁cigaret	-10765
▁concern	-10766
▁enables	-10767
▁ethical	-10768
▁fastest	-10769
▁helpful	-10770
▁serving	-10771
▁smarter	-10772
▁soldier	-10773
▁statist	-10774
▁targets	-10775
▁texting	-10776
▁winning	-10777
▁December	-10778
▁accepted	-10779
▁answered	-10780
▁choosing	-10781
▁circuits	-10782
▁delivery	-10783
▁includes	-10784
▁innocent	-10785
▁organism	-10786
▁precious	-10787
▁refugees	-10788
▁remained	-10789
▁reminded	-10790
▁shooting	-10791
▁breakfast	-10792
▁disorders	-10793
▁documents	-10794
▁forgotten	-10795
▁frequency	-10796
▁hamburger	-10797
▁miserable	-10798
▁ownership	-10799
▁recommend	-10800
▁suspended	-10801
▁synthetic	-10802
▁Bangladesh	-10803
▁attractive	-10804
▁categories	-10805
▁industries	-10806
▁integrated	-10807
▁originally	-10808
▁psychopath	-10809
▁genetically	-10810
▁restaurants	-10811
▁specialized	-10812
▁representation	-10813
EA	-10814
úm	-10815
ếm	-10816
ịa	-10817
ốp	-10818
ụi	-10819
asp	-10820
cap	-10821
erd	-10822
har	-10823
iva	-10824
top	-10825
▁52	-10826
▁74	-10827
▁93	-10828
▁97	-10829
▁CS	-10830
▁Tế	-10831
▁vớ	-10832
▁Ít	-10833
airo	-10834
aska	-10835
bing	-10836
doll	-10837
eryl	-10838
mill	-10839
okes	-10840
part	-10841
rary	-10842
rics	-10843
ship	-10844
umes	-10845
zens	-10846
▁190	-10847
▁30-	-10848
▁Ash	-10849
▁Bra	-10850
▁Hos	-10851
▁Nep	-10852
▁Oak	-10853
▁Rod	-10854
▁Tib	-10855
▁biz	-10856
▁bri	-10857
▁bộc	-10858
▁cóc	-10859
▁cồn	-10860
▁dơi	-10861
▁dẹp	-10862
▁gre	-10863
▁les	-10864
▁mur	-10865
▁trễ	-10866
▁upd	-10867
▁vạn	-10868
▁vọt	-10869
▁wid	-10870
▁xay	-10871
▁Địa	-10872
▁Đột	-10873
▁đòn	-10874
angle	-10875
aware	-10876
enter	-10877
ffect	-10878
gener	-10879
iders	-10880
izona	-10881
onald	-10882
rogen	-10883
venth	-10884
▁....	-10885
▁1995	-10886
▁Dave	-10887
▁Giới	-10888
▁Less	-10889
▁Yout	-10890
▁banh	-10891
▁bask	-10892
▁bell	-10893
▁butt	-10894
▁gang	-10895
▁gear	-10896
▁hire	-10897
▁intr	-10898
▁mood	-10899
▁pand	-10900
▁publ	-10901
▁sink	-10902
▁woke	-10903
estion	-10904
iously	-10905
makers	-10906
mental	-10907
utical	-10908
▁Beach	-10909
▁Emily	-10910
▁Ngược	-10911
▁Organ	-10912
▁Sudan	-10913
▁buồng	-10914
▁chips	-10915
▁chiêm	-10916
▁edges	-10917
▁exped	-10918
▁fires	-10919
▁fruit	-10920
▁glaci	-10921
▁maxim	-10922
▁pause	-10923
▁phồng	-10924
▁trừng	-10925
▁tubes	-10926
▁weeke	-10927
keepers	-10928
▁Norway	-10929
▁Samuel	-10930
▁burden	-10931
▁clinic	-10932
▁dozens	-10933
▁emerge	-10934
▁fought	-10935
▁insist	-10936
▁killer	-10937
▁makers	-10938
▁merely	-10939
▁silver	-10940
osterone	-10941
▁Arizona	-10942
▁Jackson	-10943
▁Seattle	-10944
▁Without	-10945
▁analyze	-10946
▁bedroom	-10947
▁bizarre	-10948
▁consult	-10949
▁engines	-10950
▁federal	-10951
▁fortune	-10952
▁founded	-10953
▁habitat	-10954
▁harness	-10955
▁involve	-10956
▁kingdom	-10957
▁offices	-10958
▁opposed	-10959
▁promote	-10960
▁routine	-10961
▁suspect	-10962
▁tissues	-10963
▁warning	-10964
▁attitude	-10965
▁calories	-10966
▁confused	-10967
▁domestic	-10968
▁peaceful	-10969
▁plastics	-10970
▁proposed	-10971
▁reducing	-10972
▁suffered	-10973
▁Obviously	-10974
▁diagnosis	-10975
▁extension	-10976
▁immediate	-10977
▁infection	-10978
▁nonprofit	-10979
▁objective	-10980
▁primarily	-10981
▁procedure	-10982
▁substance	-10983
▁difficulty	-10984
▁facilities	-10985
▁frustrated	-10986
▁operations	-10987
▁Christopher	-10988
▁programming	-10989
▁transparent	-10990
▁experimental	-10991
▁photographer	-10992
▁universities	-10993
▁globalization	-10994
asy	-10995
cou	-10996
nie	-10997
ros	-10998
sec	-10999
ấng	-11000
▁58	-11001
▁CN	-11002
▁Ev	-11003
▁RS	-11004
▁Sy	-11005
▁Xô	-11006
▁lô	-11007
▁đè	-11008
eton	-11009
free	-11010
keys	-11011
onic	-11012
oust	-11013
pace	-11014
real	-11015
▁Die	-11016
▁Fox	-11017
▁Mot	-11018
▁Ngu	-11019
▁Seb	-11020
▁fib	-11021
▁hal	-11022
▁nha	-11023
▁rốt	-11024
▁vẩn	-11025
▁ôtô	-11026
▁ướt	-11027
ademy	-11028
awatt	-11029
heart	-11030
icial	-11031
itage	-11032
otted	-11033
press	-11034
tical	-11035
umbai	-11036
usted	-11037
▁1996	-11038
▁Cath	-11039
▁Clay	-11040
▁Cour	-11041
▁Fore	-11042
▁Jean	-11043
▁Maya	-11044
▁Sáng	-11045
▁Wait	-11046
▁chay	-11047
▁crew	-11048
▁cute	-11049
▁deli	-11050
▁mate	-11051
▁ngợi	-11052
▁ngửi	-11053
▁ours	-11054
▁pháo	-11055
▁pige	-11056
▁tech	-11057
▁vắng	-11058
iences	-11059
soever	-11060
▁Elect	-11061
▁Grace	-11062
▁Larry	-11063
▁Medic	-11064
▁Nepal	-11065
▁Princ	-11066
▁Robot	-11067
▁agent	-11068
▁funds	-11069
▁incor	-11070
▁monit	-11071
▁naked	-11072
▁nodes	-11073
▁shine	-11074
▁wired	-11075
raction	-11076
▁10.000	-11077
▁Berlin	-11078
▁Jordan	-11079
▁Ladies	-11080
▁Mumbai	-11081
▁actors	-11082
▁arrang	-11083
▁compos	-11084
▁emphas	-11085
▁landed	-11086
▁poison	-11087
▁regime	-11088
▁retina	-11089
▁tunnel	-11090
▁weapon	-11091
aughters	-11092
cedented	-11093
▁200,000	-11094
▁CAPTCHA	-11095
▁Islands	-11096
▁Sweeney	-11097
▁Youtube	-11098
▁artwork	-11099
▁hanging	-11100
▁inspire	-11101
▁nghiêng	-11102
▁penguin	-11103
▁pursuit	-11104
▁rethink	-11105
▁sisters	-11106
▁smiling	-11107
aceutical	-11108
▁Atlantic	-11109
▁Jennifer	-11110
▁Somebody	-11111
▁conclude	-11112
▁drawings	-11113
▁generous	-11114
▁incident	-11115
▁isolated	-11116
▁magnetic	-11117
▁managers	-11118
▁mobility	-11119
▁pointing	-11120
▁preserve	-11121
▁shifting	-11122
▁southern	-11123
▁unemploy	-11124
▁Princeton	-11125
▁completed	-11126
▁factories	-11127
▁headlines	-11128
▁investors	-11129
▁paralyzed	-11130
▁preparing	-11131
▁accomplish	-11132
▁proportion	-11133
▁prosperity	-11134
▁remembered	-11135
▁retirement	-11136
▁whatsoever	-11137
▁spectacular	-11138
▁testosterone	-11139
▁unprecedented	-11140
▁pharmaceutical	-11141
99	-11142
ES	-11143
fin	-11144
mod	-11145
rip	-11146
uty	-11147
ượm	-11148
▁34	-11149
▁47	-11150
▁CC	-11151
▁ES	-11152
▁Fa	-11153
▁IP	-11154
▁Pu	-11155
▁Wi	-11156
,500	-11157
ched	-11158
four	-11159
icer	-11160
inea	-11161
ober	-11162
onia	-11163
oral	-11164
oven	-11165
umin	-11166
▁20-	-11167
▁Bốn	-11168
▁Dur	-11169
▁FGM	-11170
▁Lại	-11171
▁McK	-11172
▁Put	-11173
▁Quả	-11174
▁Sad	-11175
▁ain	-11176
▁amp	-11177
▁bát	-11178
▁bưu	-11179
▁bẫy	-11180
▁bồn	-11181
▁chì	-11182
▁dưa	-11183
▁kìm	-11184
▁nâu	-11185
▁spo	-11186
▁spr	-11187
▁tag	-11188
▁tao	-11189
▁xảo	-11190
▁Ước	-11191
ading	-11192
ashed	-11193
essor	-11194
ibati	-11195
icked	-11196
istor	-11197
▁1994	-11198
▁Bali	-11199
▁Half	-11200
▁Same	-11201
▁Sudd	-11202
▁bind	-11203
▁bỏng	-11204
▁clay	-11205
▁dece	-11206
▁geek	-11207
▁leaf	-11208
▁lone	-11209
▁mini	-11210
▁ngây	-11211
▁nuốt	-11212
▁quit	-11213
▁radi	-11214
▁summ	-11215
▁taxi	-11216
▁tear	-11217
▁thèm	-11218
▁thạo	-11219
▁watt	-11220
ancing	-11221
ndrome	-11222
ounder	-11223
▁Aaron	-11224
▁Hello	-11225
▁Hoàng	-11226
▁March	-11227
▁Saudi	-11228
▁Stone	-11229
▁annoy	-11230
▁armed	-11231
▁audio	-11232
▁banjo	-11233
▁biote	-11234
▁blame	-11235
▁delay	-11236
▁meals	-11237
▁nerve	-11238
▁route	-11239
▁skept	-11240
▁threw	-11241
▁upset	-11242
▁valid	-11243
ascular	-11244
▁Chương	-11245
▁County	-11246
▁Edward	-11247
▁Friday	-11248
▁Taylor	-11249
▁commod	-11250
▁expans	-11251
▁freely	-11252
▁legacy	-11253
▁matrix	-11254
▁native	-11255
▁panels	-11256
▁phthal	-11257
▁recess	-11258
▁tongue	-11259
▁voting	-11260
▁waters	-11261
▁widely	-11262
▁Iranian	-11263
▁Ireland	-11264
▁Journal	-11265
▁October	-11266
▁briefly	-11267
▁bubbles	-11268
▁dressed	-11269
▁healing	-11270
▁mammals	-11271
▁mindset	-11272
▁observe	-11273
▁onstage	-11274
▁printer	-11275
▁secrets	-11276
▁wealthy	-11277
▁writers	-11278
▁Kiribati	-11279
▁TEDTalks	-11280
▁accounts	-11281
▁aircraft	-11282
▁articles	-11283
▁educated	-11284
▁fabulous	-11285
▁figuring	-11286
▁homework	-11287
▁infinite	-11288
▁Jefferson	-11289
▁economist	-11290
▁interrupt	-11291
▁intuition	-11292
▁physician	-11293
▁remaining	-11294
▁responses	-11295
▁capitalism	-11296
▁illustrate	-11297
▁previously	-11298
▁ubiquitous	-11299
▁description	-11300
▁observation	-11301
▁conservative	-11302
▁grandparents	-11303
▁intervention	-11304
▁straightforward	-11305
80	-11306
uh	-11307
ìu	-11308
dis	-11309
law	-11310
yon	-11311
▁Od	-11312
▁SA	-11313
▁Ve	-11314
▁Xu	-11315
▁je	-11316
▁xế	-11317
▁ấp	-11318
cean	-11319
crim	-11320
eday	-11321
half	-11322
mony	-11323
opic	-11324
rate	-11325
▁1.3	-11326
▁Bot	-11327
▁Dra	-11328
▁Hot	-11329
▁bẩy	-11330
▁cay	-11331
▁glu	-11332
▁nạp	-11333
▁phế	-11334
▁rực	-11335
▁shr	-11336
▁tip	-11337
▁tảo	-11338
▁wet	-11339
▁đắm	-11340
allet	-11341
creat	-11342
epher	-11343
erved	-11344
itzer	-11345
▁Alan	-11346
▁Mạch	-11347
▁Post	-11348
▁Romo	-11349
▁Ryan	-11350
▁Stef	-11351
▁Sure	-11352
▁Vịnh	-11353
▁Wind	-11354
▁chùm	-11355
▁crop	-11356
▁decl	-11357
▁dâng	-11358
▁guer	-11359
▁nerd	-11360
▁pile	-11361
▁plug	-11362
▁quận	-11363
▁trop	-11364
▁xoáy	-11365
dollar	-11366
friend	-11367
irling	-11368
▁Beeth	-11369
▁Cairo	-11370
▁Giáng	-11371
▁Jonas	-11372
▁Trông	-11373
▁Young	-11374
▁alien	-11375
▁amate	-11376
▁ambig	-11377
▁arrow	-11378
▁award	-11379
▁cabin	-11380
▁chiên	-11381
▁chron	-11382
▁donor	-11383
▁elite	-11384
▁excit	-11385
▁horiz	-11386
▁incom	-11387
▁ngươi	-11388
▁punch	-11389
▁schem	-11390
▁slums	-11391
▁virút	-11392
▁Đương	-11393
inarily	-11394
▁Jewish	-11395
▁Philip	-11396
▁claims	-11397
▁correl	-11398
▁denial	-11399
▁firing	-11400
▁hiding	-11401
▁insane	-11402
▁uncons	-11403
controll	-11404
culation	-11405
idential	-11406
▁Academy	-11407
▁Nations	-11408
▁arguing	-11409
▁beating	-11410
▁bottles	-11411
▁clinics	-11412
▁deliber	-11413
▁despair	-11414
▁elected	-11415
▁emerged	-11416
▁formula	-11417
▁fragile	-11418
▁ignored	-11419
▁miracle	-11420
▁rehabil	-11421
▁request	-11422
▁shelter	-11423
▁tragedy	-11424
▁Margaret	-11425
▁Northern	-11426
▁Secondly	-11427
▁Suddenly	-11428
▁bathroom	-11429
▁currency	-11430
▁database	-11431
▁disabled	-11432
▁hardware	-11433
▁nowadays	-11434
▁vertical	-11435
▁Beethoven	-11436
▁announced	-11437
▁broadcast	-11438
▁expanding	-11439
▁performed	-11440
▁predicted	-11441
▁qualities	-11442
▁stability	-11443
▁ecosystems	-11444
▁mechanisms	-11445
▁microphone	-11446
▁newspapers	-11447
▁profoundly	-11448
▁terrifying	-11449
▁unconscious	-11450
▁overwhelming	-11451
▁personalized	-11452
▁grandchildren	-11453
tz	-11454
bye	-11455
cin	-11456
ctu	-11457
ili	-11458
iêm	-11459
opy	-11460
rút	-11461
▁DP	-11462
▁SR	-11463
▁XL	-11464
▁cộ	-11465
▁uỷ	-11466
▁Đế	-11467
brid	-11468
chia	-11469
esia	-11470
fold	-11471
icus	-11472
ilty	-11473
izer	-11474
onto	-11475
ylac	-11476
▁DAR	-11477
▁Leg	-11478
▁Lớn	-11479
▁Map	-11480
▁Sea	-11481
▁Tai	-11482
▁Tối	-11483
▁Val	-11484
▁ads	-11485
▁byp	-11486
▁irr	-11487
▁lin	-11488
▁nhã	-11489
▁nín	-11490
▁pir	-11491
▁reb	-11492
▁soi	-11493
▁yog	-11494
alian	-11495
aming	-11496
asses	-11497
eller	-11498
hamed	-11499
izers	-11500
phony	-11501
pless	-11502
▁1975	-11503
▁Conf	-11504
▁Fire	-11505
▁Homo	-11506
▁Lịch	-11507
▁Nghĩ	-11508
▁Ngôn	-11509
▁Nhóm	-11510
▁Thôi	-11511
▁batt	-11512
▁diều	-11513
▁dose	-11514
▁junk	-11515
▁luân	-11516
▁murd	-11517
▁nhồi	-11518
▁nhộn	-11519
▁outs	-11520
▁rice	-11521
▁salt	-11522
▁thuỳ	-11523
▁viêm	-11524
▁Đoạn	-11525
encing	-11526
imalay	-11527
vation	-11528
▁Craig	-11529
▁Quyền	-11530
▁Shang	-11531
▁Skype	-11532
▁Teach	-11533
▁Titus	-11534
▁Until	-11535
▁Vương	-11536
▁brave	-11537
▁careg	-11538
▁conce	-11539
▁guard	-11540
▁intim	-11541
▁khiếu	-11542
▁thiếp	-11543
▁tooth	-11544
athered	-11545
ndering	-11546
percent	-11547
▁Compan	-11548
▁Europa	-11549
▁Jersey	-11550
▁Mathem	-11551
▁Social	-11552
▁Things	-11553
▁Turkey	-11554
▁basket	-11555
▁caring	-11556
▁domain	-11557
▁errors	-11558
▁geomet	-11559
▁habits	-11560
▁immigr	-11561
▁nearby	-11562
▁partly	-11563
▁recall	-11564
▁simult	-11565
▁speaks	-11566
▁stimul	-11567
▁strain	-11568
andering	-11569
changing	-11570
▁Himalay	-11571
▁Nairobi	-11572
▁aggress	-11573
▁beneath	-11574
▁circles	-11575
▁glasses	-11576
▁located	-11577
▁manager	-11578
▁percept	-11579
▁profile	-11580
▁puzzles	-11581
▁uniform	-11582
▁Lawrence	-11583
▁McDonald	-11584
▁Mitchell	-11585
▁athletes	-11586
▁believes	-11587
▁ceremony	-11588
▁charming	-11589
▁comments	-11590
▁flexible	-11591
▁navigate	-11592
▁reinvent	-11593
▁robotics	-11594
▁candidate	-11595
▁collapsed	-11596
▁daughters	-11597
▁exception	-11598
▁fortunate	-11599
▁guarantee	-11600
▁positions	-11601
▁realizing	-11602
▁temporary	-11603
▁variation	-11604
▁Industrial	-11605
▁Lesterland	-11606
▁autonomous	-11607
▁biologists	-11608
▁comparison	-11609
▁excitement	-11610
▁supporting	-11611
▁threatened	-11612
▁treatments	-11613
▁devastating	-11614
▁neuroscient	-11615
▁surrounding	-11616
▁experiencing	-11617
▁storytelling	-11618
▁communications	-11619
▁interconnected	-11620
Ch	-11621
fi	-11622
gl	-11623
cre	-11624
lli	-11625
reh	-11626
rus	-11627
▁54	-11628
▁77	-11629
▁AV	-11630
▁Cụ	-11631
▁od	-11632
▁xá	-11633
▁xô	-11634
▁xả	-11635
acre	-11636
aded	-11637
bule	-11638
celi	-11639
eros	-11640
husi	-11641
lves	-11642
made	-11643
mail	-11644
riel	-11645
xual	-11646
▁125	-11647
▁900	-11648
▁Abs	-11649
▁Aur	-11650
▁CNN	-11651
▁Len	-11652
▁Lời	-11653
▁Old	-11654
▁Sou	-11655
▁USA	-11656
▁Vin	-11657
▁bến	-11658
▁cyl	-11659
▁gộp	-11660
▁hân	-11661
▁lậu	-11662
ester	-11663
geous	-11664
osaur	-11665
ushed	-11666
▁Chad	-11667
▁Dean	-11668
▁Kiến	-11669
▁Mell	-11670
▁NGOs	-11671
▁Read	-11672
▁Toán	-11673
▁bags	-11674
▁bite	-11675
▁bổng	-11676
▁caps	-11677
▁cert	-11678
▁chat	-11679
▁cree	-11680
▁damn	-11681
▁dear	-11682
▁duck	-11683
▁gate	-11684
▁lock	-11685
▁memb	-11686
▁suck	-11687
▁sùng	-11688
▁thắp	-11689
▁trội	-11690
▁tune	-11691
▁Đáng	-11692
atever	-11693
celium	-11694
epherd	-11695
racies	-11696
▁Diana	-11697
▁Dutch	-11698
▁Kyoto	-11699
▁Laure	-11700
▁Plato	-11701
▁Rives	-11702
▁Sorry	-11703
▁Swiss	-11704
▁bored	-11705
▁crows	-11706
▁embod	-11707
▁jelly	-11708
▁khăng	-11709
▁nhuộm	-11710
▁ratio	-11711
▁tends	-11712
▁trinh	-11713
essions	-11714
itating	-11715
ometown	-11716
usiness	-11717
▁Alaska	-11718
▁Graham	-11719
▁Murray	-11720
▁Oliver	-11721
▁asleep	-11722
▁burned	-11723
▁butter	-11724
▁crimes	-11725
▁endang	-11726
▁ethnic	-11727
▁kidney	-11728
▁marine	-11729
▁nghiền	-11730
▁punish	-11731
▁selves	-11732
▁stored	-11733
▁tackle	-11734
American	-11735
▁Develop	-11736
▁Whereas	-11737
▁authors	-11738
▁besides	-11739
▁courses	-11740
▁demands	-11741
▁flowing	-11742
▁garbage	-11743
▁refugee	-11744
▁reminds	-11745
▁reveals	-11746
▁rituals	-11747
▁rolling	-11748
▁threats	-11749
▁washing	-11750
▁wedding	-11751
▁Catholic	-11752
▁Whatever	-11753
▁activate	-11754
▁artistic	-11755
▁backyard	-11756
▁genetics	-11757
▁guerrill	-11758
▁listened	-11759
▁mycelium	-11760
▁presents	-11761
▁scenario	-11762
▁sciences	-11763
▁shipping	-11764
▁tendency	-11765
▁transmit	-11766
▁gradually	-11767
▁perceived	-11768
▁prisoners	-11769
▁radically	-11770
▁exhibition	-11771
▁structural	-11772
▁consequence	-11773
▁democracies	-11774
▁innovations	-11775
▁schizophrenia	-11776
▁significantly	-11777
IS	-11778
RNA	-11779
ira	-11780
nut	-11781
rif	-11782
rir	-11783
vin	-11784
yal	-11785
▁CL	-11786
▁Uk	-11787
▁Ze	-11788
▁bế	-11789
▁dỡ	-11790
▁lê	-11791
▁oy	-11792
▁ân	-11793
abad	-11794
agan	-11795
amed	-11796
apor	-11797
asty	-11798
born	-11799
cycl	-11800
edge	-11801
enix	-11802
greg	-11803
mann	-11804
oves	-11805
quis	-11806
ugal	-11807
▁450	-11808
▁Ach	-11809
▁Bal	-11810
▁Edu	-11811
▁Fib	-11812
▁Gay	-11813
▁Khả	-11814
▁McG	-11815
▁Pap	-11816
▁Tob	-11817
▁Tìm	-11818
▁cai	-11819
▁cuả	-11820
▁dil	-11821
▁gig	-11822
▁gập	-11823
▁keo	-11824
▁lội	-11825
▁mọt	-11826
▁ngô	-11827
▁ngộ	-11828
▁ria	-11829
▁sói	-11830
▁sếp	-11831
▁via	-11832
▁Ánh	-11833
▁Đan	-11834
aired	-11835
eping	-11836
idges	-11837
iment	-11838
imore	-11839
licit	-11840
regon	-11841
three	-11842
▁Arch	-11843
▁Chất	-11844
▁Food	-11845
▁Hind	-11846
▁Home	-11847
▁Kính	-11848
▁Mall	-11849
▁Peru	-11850
▁Tiền	-11851
▁clot	-11852
▁dent	-11853
▁dood	-11854
▁genu	-11855
▁lamp	-11856
▁lượm	-11857
▁neoc	-11858
▁nhăn	-11859
▁quot	-11860
▁rope	-11861
▁sett	-11862
▁tone	-11863
▁trêu	-11864
▁verb	-11865
gments	-11866
otonin	-11867
▁Coast	-11868
▁Diego	-11869
▁Dubai	-11870
▁Jerry	-11871
▁Keith	-11872
▁Ocean	-11873
▁Qaeda	-11874
▁Stand	-11875
▁Stock	-11876
▁Thống	-11877
▁Using	-11878
▁brows	-11879
▁deals	-11880
▁divor	-11881
▁fiber	-11882
▁gases	-11883
▁hopes	-11884
▁khoán	-11885
▁meter	-11886
▁rocks	-11887
▁safer	-11888
▁sharp	-11889
▁shrim	-11890
▁spill	-11891
▁spons	-11892
▁spont	-11893
▁spray	-11894
▁twist	-11895
▁Bertie	-11896
▁Cambod	-11897
▁Guinea	-11898
▁Oregon	-11899
▁Sobule	-11900
▁astero	-11901
▁buried	-11902
▁column	-11903
▁contag	-11904
▁cousin	-11905
▁covers	-11906
▁degrad	-11907
▁editor	-11908
▁marker	-11909
▁posted	-11910
▁recipe	-11911
▁ticket	-11912
▁tragic	-11913
▁unable	-11914
▁wheels	-11915
▁Hawking	-11916
▁Toronto	-11917
▁barrier	-11918
▁compete	-11919
▁discrim	-11920
▁folding	-11921
▁lottery	-11922
▁monkeys	-11923
▁pointed	-11924
▁resolve	-11925
▁smoking	-11926
▁symbols	-11927
▁November	-11928
▁Shanghai	-11929
▁barriers	-11930
▁climbing	-11931
▁failures	-11932
▁improvis	-11933
▁purposes	-11934
▁socially	-11935
▁surfaces	-11936
▁survived	-11937
▁throwing	-11938
▁acknowled	-11939
▁agreement	-11940
▁authentic	-11941
▁dimension	-11942
▁expertise	-11943
▁graduated	-11944
▁mosquitos	-11945
▁nutrients	-11946
▁obstacles	-11947
▁reactions	-11948
▁volunteer	-11949
▁approaches	-11950
▁compromise	-11951
▁continuing	-11952
▁mainstream	-11953
▁mathematic	-11954
▁satellites	-11955
▁traditions	-11956
▁yourselves	-11957
▁constraints	-11958
▁reconstruct	-11959
▁corporations	-11960
▁architectural	-11961
▁interventions	-11962
▁=	-11963
boo	-11964
ias	-11965
pat	-11966
uum	-11967
▁53	-11968
▁82	-11969
▁BM	-11970
▁MG	-11971
▁rổ	-11972
abit	-11973
away	-11974
city	-11975
cost	-11976
hire	-11977
ifty	-11978
ller	-11979
long	-11980
mart	-11981
road	-11982
▁15-	-11983
▁Aye	-11984
▁Bọn	-11985
▁Eli	-11986
▁FDA	-11987
▁Hop	-11988
▁Mas	-11989
▁Pho	-11990
▁Ver	-11991
▁aug	-11992
▁bóp	-11993
▁bới	-11994
▁cẩu	-11995
▁giế	-11996
▁hán	-11997
▁hẻo	-11998
▁khe	-11999
▁lit	-12000
▁rải	-12001
▁vẫy	-12002
▁Đưa	-12003
Women	-12004
digit	-12005
grade	-12006
impse	-12007
umble	-12008
▁1945	-12009
▁Case	-12010
▁Doha	-12011
▁FOXO	-12012
▁Gall	-12013
▁Hunt	-12014
▁Kiểu	-12015
▁Lake	-12016
▁Lord	-12017
▁Ross	-12018
▁cash	-12019
▁clue	-12020
▁dang	-12021
▁guid	-12022
▁hors	-12023
▁khâu	-12024
▁khép	-12025
▁khốn	-12026
▁prec	-12027
▁prol	-12028
▁sake	-12029
▁silk	-12030
▁sảnh	-12031
▁triv	-12032
▁wrap	-12033
ashing	-12034
atrina	-12035
couver	-12036
▁Court	-12037
▁Julie	-12038
▁Ngoại	-12039
▁candy	-12040
▁demos	-12041
▁diver	-12042
▁downt	-12043
▁drown	-12044
▁intro	-12045
▁kills	-12046
▁lanes	-12047
▁manif	-12048
▁owned	-12049
▁owner	-12050
▁pairs	-12051
▁pride	-12052
▁tower	-12053
illance	-12054
rasound	-12055
working	-12056
▁12,000	-12057
▁Anyone	-12058
▁Govern	-12059
▁Little	-12060
▁Sebast	-12061
▁breaks	-12062
▁nights	-12063
▁packed	-12064
▁potato	-12065
▁rivers	-12066
▁static	-12067
▁thylac	-12068
▁Freedom	-12069
▁Melinda	-12070
▁analogy	-12071
▁chapter	-12072
▁condoms	-12073
▁enthusi	-12074
▁genuine	-12075
▁hunting	-12076
▁immense	-12077
▁officer	-12078
▁package	-12079
▁patents	-12080
▁pockets	-12081
▁traject	-12082
▁whistle	-12083
▁Franklin	-12084
▁Tasmania	-12085
▁applying	-12086
▁arrested	-12087
▁clusters	-12088
▁division	-12089
▁historic	-12090
▁included	-12091
▁magnific	-12092
▁measures	-12093
▁microRNA	-12094
▁offering	-12095
▁pandemic	-12096
▁particle	-12097
▁prostate	-12098
▁restrict	-12099
▁teenager	-12100
▁affecting	-12101
▁audiences	-12102
▁investing	-12103
▁serotonin	-12104
▁strategic	-12105
▁terrorism	-12106
engineering	-12107
▁adolescent	-12108
▁endangered	-12109
▁interviews	-12110
▁calculations	-12111
▁contemporary	-12112
▁dictionaries	-12113
▁independence	-12114
▁unbelievable	-12115
-3	-12116
AS	-12117
fa	-12118
ti	-12119
êt	-12120
bot	-12121
hal	-12122
het	-12123
kel	-12124
opo	-12125
▁Py	-12126
▁RG	-12127
▁TS	-12128
▁Xã	-12129
▁hả	-12130
▁tơ	-12131
aped	-12132
fred	-12133
imee	-12134
itar	-12135
kind	-12136
laim	-12137
lets	-12138
neys	-12139
outs	-12140
rick	-12141
unes	-12142
▁Abu	-12143
▁Ark	-12144
▁Bah	-12145
▁Bir	-12146
▁Bru	-12147
▁Chu	-12148
▁Cầu	-12149
▁FBI	-12150
▁Mới	-12151
▁Pen	-12152
▁bùn	-12153
▁len	-12154
▁nhí	-12155
▁nãy	-12156
▁obt	-12157
▁oct	-12158
▁sỏi	-12159
▁thề	-12160
▁tua	-12161
▁tụt	-12162
▁vàn	-12163
▁xài	-12164
Point	-12165
alore	-12166
effic	-12167
enses	-12168
insky	-12169
oshop	-12170
osity	-12171
owitz	-12172
rates	-12173
thals	-12174
▁1992	-12175
▁1997	-12176
▁2020	-12177
▁Balt	-12178
▁Band	-12179
▁Bart	-12180
▁Full	-12181
▁Gary	-12182
▁Gene	-12183
▁Gwen	-12184
▁Jama	-12185
▁July	-12186
▁Know	-12187
▁Lear	-12188
▁Nich	-12189
▁Prot	-12190
▁Vene	-12191
▁anat	-12192
▁buff	-12193
▁chốn	-12194
▁dawn	-12195
▁fate	-12196
▁gods	-12197
▁guns	-12198
▁khốc	-12199
▁lean	-12200
▁lượn	-12201
▁neck	-12202
▁palm	-12203
▁phôi	-12204
▁pigs	-12205
▁soap	-12206
▁tale	-12207
▁đàng	-12208
oliath	-12209
▁Aimee	-12210
▁Asian	-12211
▁Buddh	-12212
▁Cloud	-12213
▁Light	-12214
▁Louis	-12215
▁Media	-12216
▁Nguồn	-12217
▁Treat	-12218
▁bucks	-12219
▁chặng	-12220
▁genoc	-12221
▁giếng	-12222
▁inher	-12223
▁juice	-12224
▁mayor	-12225
▁physi	-12226
▁scaff	-12227
▁Walker	-12228
▁bullet	-12229
▁cultiv	-12230
▁fallen	-12231
▁gained	-12232
▁headed	-12233
▁infant	-12234
▁khoang	-12235
▁manual	-12236
▁orient	-12237
▁perpet	-12238
▁sacred	-12239
▁sheets	-12240
▁shrimp	-12241
▁spider	-12242
▁strict	-12243
▁subway	-12244
▁thresh	-12245
▁topics	-12246
▁typing	-12247
▁Oakland	-12248
▁augment	-12249
▁deserve	-12250
▁destiny	-12251
▁drought	-12252
▁educate	-12253
▁forming	-12254
▁glimpse	-12255
▁happily	-12256
▁prisons	-12257
▁pyramid	-12258
▁readers	-12259
▁reports	-12260
▁teenage	-12261
▁terrain	-12262
▁trigger	-12263
▁Treasure	-12264
▁autistic	-12265
▁connects	-12266
▁hometown	-12267
▁lifespan	-12268
▁scholars	-12269
▁simplest	-12270
▁syndrome	-12271
▁Baltimore	-12272
▁Bangalore	-12273
▁Professor	-12274
▁Vancouver	-12275
▁blindness	-12276
▁cooperate	-12277
▁estimates	-12278
▁excellent	-12279
▁explosion	-12280
▁installed	-12281
▁locations	-12282
▁officials	-12283
▁parenting	-12284
▁PowerPoint	-12285
▁classrooms	-12286
▁correspond	-12287
▁determines	-12288
▁ecological	-12289
▁elementary	-12290
▁responding	-12291
▁beautifully	-12292
▁desperately	-12293
▁fortunately	-12294
▁foundations	-12295
▁capabilities	-12296
▁collectively	-12297
▁transmission	-12298
ez	-12299
bốt	-12300
een	-12301
erk	-12302
ffe	-12303
hen	-12304
lad	-12305
leg	-12306
nee	-12307
▁57	-12308
▁Aw	-12309
▁Cố	-12310
▁Li	-12311
▁YR	-12312
▁rò	-12313
▁xi	-12314
▁xơ	-12315
▁Đô	-12316
acci	-12317
aman	-12318
aste	-12319
hall	-12320
hran	-12321
irts	-12322
ocol	-12323
rior	-12324
seen	-12325
stan	-12326
xter	-12327
▁Ast	-12328
▁Bảy	-12329
▁Dam	-12330
▁Gra	-12331
▁Kle	-12332
▁Mid	-12333
▁Ter	-12334
▁Thí	-12335
▁Thú	-12336
▁Tâm	-12337
▁awe	-12338
▁bội	-12339
▁dim	-12340
▁dys	-12341
▁hàu	-12342
▁jew	-12343
▁loa	-12344
▁lứa	-12345
▁mẹo	-12346
▁nap	-12347
▁nắp	-12348
▁nếm	-12349
▁rip	-12350
▁sew	-12351
▁shy	-12352
▁sib	-12353
▁đãi	-12354
▁đồn	-12355
ching	-12356
gence	-12357
nders	-12358
ulses	-12359
▁Chim	-12360
▁Coch	-12361
▁Cảnh	-12362
▁Dưới	-12363
▁Gaza	-12364
▁Gord	-12365
▁Kong	-12366
▁Mach	-12367
▁Nhạc	-12368
▁Open	-12369
▁Rory	-12370
▁Sher	-12371
▁blah	-12372
▁brib	-12373
▁bênh	-12374
▁dumb	-12375
▁fits	-12376
▁hăng	-12377
▁lách	-12378
▁lửng	-12379
▁muôn	-12380
▁nest	-12381
▁ngắt	-12382
▁nuts	-12383
▁nuối	-12384
▁quạt	-12385
▁rape	-12386
▁rặng	-12387
▁sail	-12388
▁stom	-12389
▁tact	-12390
▁ties	-12391
▁util	-12392
▁vách	-12393
▁Định	-12394
▁đọng	-12395
manuel	-12396
ometer	-12397
onacci	-12398
▁Child	-12399
▁Dường	-12400
▁Niger	-12401
▁Queen	-12402
▁Titan	-12403
▁acids	-12404
▁ambit	-12405
▁boost	-12406
▁camps	-12407
▁chess	-12408
▁cliff	-12409
▁coinc	-12410
▁drift	-12411
▁ingen	-12412
▁khiết	-12413
▁lungs	-12414
▁marry	-12415
▁nhược	-12416
▁panel	-12417
▁sweat	-12418
▁trace	-12419
▁trail	-12420
▁troub	-12421
▁wires	-12422
▁Saturn	-12423
▁Tehran	-12424
▁Truyền	-12425
▁advent	-12426
▁builds	-12427
▁convey	-12428
▁criter	-12429
▁cycles	-12430
▁deadly	-12431
▁immort	-12432
▁linear	-12433
▁marvel	-12434
▁proven	-12435
▁racing	-12436
▁riding	-12437
▁smells	-12438
▁surviv	-12439
▁trương	-12440
▁worthy	-12441
gression	-12442
interest	-12443
quarters	-12444
▁Connect	-12445
▁Katrina	-12446
▁Liberia	-12447
▁Phoenix	-12448
▁banking	-12449
▁exercis	-12450
▁exhibit	-12451
▁gesture	-12452
▁methane	-12453
▁portion	-12454
▁shocked	-12455
▁simpler	-12456
▁stepped	-12457
▁superst	-12458
▁Stirling	-12459
▁Williams	-12460
▁covering	-12461
▁explicit	-12462
▁friendly	-12463
▁gathered	-12464
▁gorgeous	-12465
▁graphics	-12466
▁honestly	-12467
▁invested	-12468
▁portrait	-12469
▁reliable	-12470
▁stranger	-12471
▁surgeons	-12472
▁Fibonacci	-12473
▁abandoned	-12474
▁airplanes	-12475
▁bacterial	-12476
▁expansion	-12477
▁initially	-12478
▁mechanics	-12479
▁orchestra	-12480
▁primitive	-12481
▁sexuality	-12482
▁signature	-12483
forestation	-12484
▁aggressive	-12485
▁candidates	-12486
▁challenged	-12487
▁discipline	-12488
▁electrodes	-12489
▁landscapes	-12490
▁medication	-12491
▁mysterious	-12492
▁simulation	-12493
▁telescopes	-12494
▁demographic	-12495
▁supermarket	-12496
▁Neanderthals	-12497
▁occasionally	-12498
▁psychologist	-12499
▁transforming	-12500
▁concentration	-12501
▁hallucinations	-12502
▁representative	-12503
rh	-12504
ỉa	-12505
600	-12506
MED	-12507
aga	-12508
bus	-12509
cca	-12510
cro	-12511
eds	-12512
ibo	-12513
iro	-12514
oca	-12515
sch	-12516
zer	-12517
▁78	-12518
▁Ir	-12519
▁LH	-12520
▁Mô	-12521
▁Rh	-12522
▁nạ	-12523
aken	-12524
icit	-12525
itra	-12526
lean	-12527
obyl	-12528
phan	-12529
play	-12530
plus	-12531
rats	-12532
scar	-12533
▁110	-12534
▁404	-12535
▁Ali	-12536
▁CAD	-12537
▁Its	-12538
▁LOL	-12539
▁Mấy	-12540
▁Mối	-12541
▁Mộc	-12542
▁Reg	-12543
▁Str	-12544
▁Suy	-12545
▁bio	-12546
▁dâu	-12547
▁dời	-12548
▁eur	-12549
▁lấn	-12550
▁rệt	-12551
▁sir	-12552
▁tát	-12553
▁váy	-12554
▁vặn	-12555
▁Đàn	-12556
▁đan	-12557
▁đun	-12558
adian	-12559
aving	-12560
ccoli	-12561
inker	-12562
orage	-12563
orted	-12564
raine	-12565
reens	-12566
ribly	-12567
theon	-12568
urday	-12569
zuela	-12570
▁1800	-12571
▁Beau	-12572
▁Both	-12573
▁Băng	-12574
▁Cuba	-12575
▁Gard	-12576
▁Greg	-12577
▁MoMA	-12578
▁Mong	-12579
▁Palm	-12580
▁Peps	-12581
▁Plan	-12582
▁SOPA	-12583
▁Sara	-12584
▁Tenn	-12585
▁Wiki	-12586
▁Yale	-12587
▁bush	-12588
▁chui	-12589
▁heal	-12590
▁hiếu	-12591
▁keys	-12592
▁lake	-12593
▁mode	-12594
▁ngào	-12595
▁rose	-12596
▁seal	-12597
▁shit	-12598
▁sons	-12599
▁unst	-12600
aneous	-12601
cyclop	-12602
rhythm	-12603
spring	-12604
weight	-12605
▁1,500	-12606
▁Billy	-12607
▁Creat	-12608
▁Gando	-12609
▁Harry	-12610
▁Mario	-12611
▁Quảng	-12612
▁Radio	-12613
▁badly	-12614
▁brush	-12615
▁cheat	-12616
▁clues	-12617
▁conqu	-12618
▁cruel	-12619
▁girlf	-12620
▁gluco	-12621
▁gotta	-12622
▁grace	-12623
▁illum	-12624
▁khuất	-12625
▁liêng	-12626
▁mimic	-12627
▁mines	-12628
▁ngoạn	-12629
▁obese	-12630
▁quăng	-12631
▁reass	-12632
▁redes	-12633
▁stake	-12634
▁stead	-12635
▁worms	-12636
looking	-12637
otherap	-12638
▁25,000	-12639
▁Alfred	-12640
▁Harlem	-12641
▁Potter	-12642
▁Rather	-12643
▁Secret	-12644
▁agents	-12645
▁brands	-12646
▁chuộng	-12647
▁cotton	-12648
▁hybrid	-12649
▁loving	-12650
▁luxury	-12651
▁nitric	-12652
▁passes	-12653
▁propag	-12654
▁pursue	-12655
▁raises	-12656
▁strike	-12657
▁theore	-12658
▁tomato	-12659
▁tumors	-12660
standing	-12661
▁Matthew	-12662
▁carries	-12663
▁compreh	-12664
▁corrupt	-12665
▁damaged	-12666
▁deepest	-12667
▁injured	-12668
▁mapping	-12669
▁neutral	-12670
▁profits	-12671
▁someday	-12672
▁talents	-12673
▁unhappy	-12674
▁wrapped	-12675
▁Saturday	-12676
▁Southern	-12677
▁Victoria	-12678
▁breeding	-12679
▁channels	-12680
▁cocktail	-12681
▁compound	-12682
▁contrary	-12683
▁criteria	-12684
▁findings	-12685
▁fraction	-12686
▁horizont	-12687
▁interven	-12688
▁leverage	-12689
▁momentum	-12690
▁proposal	-12691
▁recycled	-12692
▁stopping	-12693
▁visually	-12694
▁wildlife	-12695
ographical	-12696
▁Venezuela	-12697
▁abilities	-12698
▁ambitious	-12699
▁believing	-12700
▁bombsight	-12701
▁competing	-12702
▁gentleman	-12703
▁intensive	-12704
▁mushrooms	-12705
▁transcend	-12706
▁workforce	-12707
▁Technology	-12708
▁appearance	-12709
▁courageous	-12710
▁disturbing	-12711
▁engineered	-12712
▁helicopter	-12713
▁intriguing	-12714
▁manipulate	-12715
▁suggestion	-12716
▁achievement	-12717
▁competitive	-12718
▁discovering	-12719
▁interviewed	-12720
▁legislation	-12721
▁magnificent	-12722
▁contribution	-12723
▁embarrassing	-12724
▁historically	-12725
▁institutional	-12726
▁interestingly	-12727
▁participation	-12728
▁psychologists	-12729
▁simultaneously	-12730
.9	-12731
IC	-12732
ju	-12733
ụa	-12734
▁ơ	-12735
201	-12736
Spe	-12737
can	-12738
hum	-12739
len	-12740
mat	-12741
mun	-12742
nge	-12743
▁68	-12744
▁Gô	-12745
▁Kế	-12746
▁Ly	-12747
▁PC	-12748
▁PI	-12749
▁êm	-12750
▁ôi	-12751
▁Đồ	-12752
▁ỏi	-12753
ails	-12754
anka	-12755
artz	-12756
iece	-12757
igma	-12758
ocke	-12759
plic	-12760
rypt	-12761
uate	-12762
▁Blo	-12763
▁Bor	-12764
▁Chữ	-12765
▁Môi	-12766
▁Naz	-12767
▁Nic	-12768
▁Off	-12769
▁Say	-12770
▁Xây	-12771
▁cán	-12772
▁cắn	-12773
▁fis	-12774
▁khử	-12775
▁nứt	-12776
▁quỵ	-12777
▁soc	-12778
▁tie	-12779
▁toa	-12780
▁tạc	-12781
▁đứt	-12782
emies	-12783
erals	-12784
ffiti	-12785
ibera	-12786
oters	-12787
pling	-12788
secut	-12789
sized	-12790
weets	-12791
xious	-12792
▁Anth	-12793
▁Chân	-12794
▁Main	-12795
▁Neil	-12796
▁Poll	-12797
▁Vide	-12798
▁cham	-12799
▁deaf	-12800
▁disg	-12801
▁epis	-12802
▁gaps	-12803
▁lawn	-12804
▁marg	-12805
▁ngơi	-12806
▁nhát	-12807
▁nhạo	-12808
▁outd	-12809
▁oven	-12810
▁sale	-12811
▁suối	-12812
▁ward	-12813
Speech	-12814
icient	-12815
ington	-12816
orious	-12817
uction	-12818
ureauc	-12819
usting	-12820
▁Chern	-12821
▁Color	-12822
▁Meyer	-12823
▁Oprah	-12824
▁bills	-12825
▁chuối	-12826
▁fancy	-12827
▁flows	-12828
▁grabb	-12829
▁grasp	-12830
▁grave	-12831
▁hated	-12832
▁messy	-12833
▁pills	-12834
▁realm	-12835
▁remix	-12836
▁shelf	-12837
▁straw	-12838
▁viral	-12839
osaurus	-12840
theless	-12841
▁Almost	-12842
▁Barack	-12843
▁Mozart	-12844
▁Norman	-12845
▁TEDMED	-12846
▁annual	-12847
▁decent	-12848
▁flavor	-12849
▁format	-12850
▁grains	-12851
▁guilty	-12852
▁harbor	-12853
▁helium	-12854
▁immers	-12855
▁jumped	-12856
▁pigeon	-12857
▁pollut	-12858
▁syring	-12859
▁tracks	-12860
▁troops	-12861
▁truths	-12862
▁upside	-12863
▁vacuum	-12864
computer	-12865
iability	-12866
▁Caltech	-12867
▁Goliath	-12868
▁Scratch	-12869
▁beetles	-12870
▁colored	-12871
▁counsel	-12872
▁dolphin	-12873
▁enjoyed	-12874
▁genomes	-12875
▁hardest	-12876
▁horizon	-12877
▁labeled	-12878
▁minimum	-12879
▁neocort	-12880
▁reclaim	-12881
▁rewards	-12882
▁seeking	-12883
▁staring	-12884
▁Although	-12885
▁Olympics	-12886
▁concerns	-12887
▁customer	-12888
▁cylinder	-12889
▁defining	-12890
▁democrat	-12891
▁downtown	-12892
▁extended	-12893
▁fragment	-12894
▁freezing	-12895
▁genocide	-12896
▁graffiti	-12897
▁helpless	-12898
▁replaced	-12899
▁stunning	-12900
▁theories	-12901
▁versions	-12902
▁websites	-12903
▁Chernobyl	-12904
▁aesthetic	-12905
▁answering	-12906
▁astronaut	-12907
▁batteries	-12908
▁conducted	-12909
▁detection	-12910
▁fireflies	-12911
▁offspring	-12912
▁regularly	-12913
▁replicate	-12914
▁resistant	-12915
▁statistic	-12916
▁succeeded	-12917
▁threshold	-12918
▁Copernicus	-12919
▁FreeSpeech	-12920
▁capability	-12921
▁expedition	-12922
▁impression	-12923
▁permission	-12924
▁physicists	-12925
▁prevention	-12926
▁reasonable	-12927
▁trajectory	-12928
▁authorities	-12929
▁consciously	-12930
▁frightening	-12931
▁instruction	-12932
▁limitations	-12933
▁overwhelmed	-12934
▁projections	-12935
▁humanitarian	-12936
▁surveillance	-12937
▁controversial	-12938
▁systematically	-12939
.7	-12940
ki	-12941
su	-12942
100	-12943
aha	-12944
ift	-12945
oko	-12946
ona	-12947
oux	-12948
▁84	-12949
▁Uỷ	-12950
▁hở	-12951
▁tớ	-12952
acks	-12953
ador	-12954
arin	-12955
atem	-12956
fire	-12957
iley	-12958
imag	-12959
lers	-12960
moud	-12961
ocks	-12962
olby	-12963
pril	-12964
rier	-12965
uded	-12966
ules	-12967
untu	-12968
zees	-12969
▁186	-12970
▁189	-12971
▁360	-12972
▁Age	-12973
▁Ext	-12974
▁Haz	-12975
▁Kal	-12976
▁Sin	-12977
▁Ult	-12978
▁Woo	-12979
▁cua	-12980
▁cọc	-12981
▁dồi	-12982
▁jam	-12983
▁jet	-12984
▁lót	-12985
▁ngả	-12986
▁nin	-12987
▁sứa	-12988
▁wow	-12989
▁đạm	-12990
annah	-12991
evity	-12992
ilton	-12993
rated	-12994
world	-12995
▁Buổi	-12996
▁Càng	-12997
▁Educ	-12998
▁Mond	-12999
▁Move	-13000
▁Odys	-13001
▁Phía	-13002
▁Soph	-13003
▁Stop	-13004
▁Thần	-13005
▁Tora	-13006
▁Whit	-13007
▁beef	-13008
▁bend	-13009
▁chạp	-13010
▁cube	-13011
▁dirt	-13012
▁hipp	-13013
▁inex	-13014
▁kiềm	-13015
▁mars	-13016
▁pole	-13017
▁thri	-13018
▁thốn	-13019
▁trói	-13020
▁turb	-13021
▁tước	-13022
active	-13023
driven	-13024
lihood	-13025
tering	-13026
urable	-13027
▁April	-13028
▁Being	-13029
▁Bruce	-13030
▁Dolby	-13031
▁Essex	-13032
▁Gehry	-13033
▁Guard	-13034
▁Moses	-13035
▁Pepsi	-13036
▁Small	-13037
▁Tibet	-13038
▁amino	-13039
▁bench	-13040
▁bribe	-13041
▁caves	-13042
▁cello	-13043
▁gramm	-13044
▁hired	-13045
▁joint	-13046
▁khinh	-13047
▁maker	-13048
▁minus	-13049
▁raped	-13050
▁recre	-13051
▁revel	-13052
▁shout	-13053
▁twins	-13054
▁vocal	-13055
▁voted	-13056
▁yards	-13057
faction	-13058
tending	-13059
▁Archie	-13060
▁Bonnie	-13061
▁Chuyến	-13062
▁During	-13063
▁Guatem	-13064
▁Michel	-13065
▁Pretty	-13066
▁Tahrir	-13067
▁Tennes	-13068
▁Thương	-13069
▁fundra	-13070
▁iconic	-13071
▁inevit	-13072
▁lonely	-13073
▁modest	-13074
▁nerves	-13075
▁overse	-13076
▁scales	-13077
▁shower	-13078
▁summar	-13079
▁tempor	-13080
▁viscer	-13081
otherapy	-13082
▁Gilbert	-13083
▁Langley	-13084
▁Mahmoud	-13085
▁Mexican	-13086
▁assumed	-13087
▁doubled	-13088
▁glucose	-13089
▁hacking	-13090
▁heading	-13091
▁highway	-13092
▁inmates	-13093
▁logical	-13094
▁outrage	-13095
▁periods	-13096
▁planned	-13097
▁planted	-13098
▁propose	-13099
▁shaking	-13100
▁storage	-13101
▁venture	-13102
▁Absolute	-13103
▁Africans	-13104
▁Business	-13105
▁TEDWomen	-13106
▁actively	-13107
▁cellular	-13108
▁cheating	-13109
▁clothing	-13110
▁counting	-13111
▁dynamics	-13112
▁earliest	-13113
▁heritage	-13114
▁opinions	-13115
▁randomly	-13116
▁relation	-13117
▁striking	-13118
▁substant	-13119
▁supplies	-13120
▁abundance	-13121
▁biologist	-13122
▁disasters	-13123
▁expecting	-13124
▁hierarchy	-13125
▁illusions	-13126
▁incentive	-13127
▁inflation	-13128
▁involving	-13129
▁judgments	-13130
▁medicines	-13131
▁recession	-13132
▁seemingly	-13133
▁terrified	-13134
▁therapies	-13135
▁assumption	-13136
▁continuous	-13137
▁encouraged	-13138
▁physicians	-13139
▁prediction	-13140
▁reflection	-13141
▁resolution	-13142
▁sculptures	-13143
▁systematic	-13144
▁constructed	-13145
▁investments	-13146
▁technically	-13147
▁understands	-13148
▁authoritarian	-13149
▁civilizations	-13150
▁compassionate	-13151
▁computational	-13152
▁rehabilitation	-13153
▁extraordinarily	-13154
CO	-13155
ùn	-13156
▁ủ	-13157
aby	-13158
awi	-13159
cip	-13160
eem	-13161
jev	-13162
oks	-13163
pos	-13164
roy	-13165
▁39	-13166
▁MP	-13167
▁MR	-13168
▁Mi	-13169
▁ft	-13170
▁tẻ	-13171
esis	-13172
olen	-13173
olum	-13174
omin	-13175
opus	-13176
redd	-13177
rett	-13178
tent	-13179
zero	-13180
▁Agn	-13181
▁Bow	-13182
▁Dai	-13183
▁Def	-13184
▁Est	-13185
▁Fil	-13186
▁Ill	-13187
▁Kay	-13188
▁MBA	-13189
▁Mos	-13190
▁NBA	-13191
▁Ott	-13192
▁Rus	-13193
▁USD	-13194
▁avo	-13195
▁bam	-13196
▁cạo	-13197
▁dào	-13198
▁hoi	-13199
▁jaw	-13200
▁lọt	-13201
▁nặc	-13202
▁nến	-13203
▁nộp	-13204
▁rớt	-13205
▁thỏ	-13206
▁xốp	-13207
▁Đâu	-13208
▁đốn	-13209
apped	-13210
ctors	-13211
storm	-13212
under	-13213
▁1989	-13214
▁Cuốn	-13215
▁Hiệu	-13216
▁Mạng	-13217
▁Năng	-13218
▁PIPA	-13219
▁Pear	-13220
▁UCLA	-13221
▁Viết	-13222
▁apps	-13223
▁aunt	-13224
▁calm	-13225
▁chọi	-13226
▁cuts	-13227
▁cưỡi	-13228
▁dump	-13229
▁forb	-13230
▁giàn	-13231
▁găng	-13232
▁herd	-13233
▁infl	-13234
▁ngủi	-13235
▁nhấc	-13236
▁node	-13237
▁phàn	-13238
▁prev	-13239
▁quẩn	-13240
▁rang	-13241
▁solo	-13242
▁span	-13243
▁sưởi	-13244
▁wins	-13245
▁đính	-13246
elines	-13247
iverse	-13248
person	-13249
▁Brand	-13250
▁Denis	-13251
▁Greek	-13252
▁Oscar	-13253
▁Serge	-13254
▁Seven	-13255
▁Solly	-13256
▁Start	-13257
▁Thuật	-13258
▁Turns	-13259
▁arbit	-13260
▁blogs	-13261
▁cares	-13262
▁entry	-13263
▁farms	-13264
▁fatal	-13265
▁inhib	-13266
▁nguội	-13267
▁orang	-13268
▁paste	-13269
▁penis	-13270
▁phích	-13271
▁ships	-13272
▁spare	-13273
▁squee	-13274
▁stair	-13275
▁thừng	-13276
▁vivid	-13277
▁vướng	-13278
▁winds	-13279
itative	-13280
ruption	-13281
sterdam	-13282
▁Arabia	-13283
▁Greece	-13284
▁Justin	-13285
▁Kibera	-13286
▁Online	-13287
▁amazed	-13288
▁beetle	-13289
▁campus	-13290
▁client	-13291
▁formal	-13292
▁horrif	-13293
▁magnet	-13294
▁motors	-13295
▁multip	-13296
▁murder	-13297
▁namely	-13298
▁safely	-13299
▁scenes	-13300
▁tattoo	-13301
▁wooden	-13302
elescope	-13303
▁Anybody	-13304
▁Philipp	-13305
▁Similar	-13306
▁Someone	-13307
▁Stanley	-13308
▁cooling	-13309
▁easiest	-13310
▁enemies	-13311
▁favelas	-13312
▁generic	-13313
▁intrins	-13314
▁jumping	-13315
▁millenn	-13316
▁secular	-13317
▁selfish	-13318
▁stomach	-13319
▁toilets	-13320
▁TEDsters	-13321
▁accompan	-13322
▁advances	-13323
▁approved	-13324
▁attacked	-13325
▁broccoli	-13326
▁detector	-13327
▁incorpor	-13328
▁informed	-13329
▁injuries	-13330
▁lectures	-13331
▁observed	-13332
▁progeria	-13333
▁rejected	-13334
▁switched	-13335
▁touching	-13336
▁vacation	-13337
▁Guatemala	-13338
▁Tennessee	-13339
▁associate	-13340
▁container	-13341
▁correctly	-13342
▁criminals	-13343
▁electrons	-13344
▁empowered	-13345
▁favorites	-13346
▁longevity	-13347
▁motivated	-13348
▁phenomena	-13349
▁realistic	-13350
▁receiving	-13351
▁reproduce	-13352
▁tolerance	-13353
▁universes	-13354
▁assignment	-13355
▁calculated	-13356
▁catastroph	-13357
▁disability	-13358
▁frequently	-13359
▁impressive	-13360
▁ingredient	-13361
▁likelihood	-13362
▁meditation	-13363
▁monitoring	-13364
▁nonviolent	-13365
▁regardless	-13366
▁remarkably	-13367
▁ultrasound	-13368
▁Palestinian	-13369
▁acknowledge	-13370
▁approaching	-13371
▁chimpanzees	-13372
▁computation	-13373
▁discoveries	-13374
▁documentary	-13375
▁encouraging	-13376
▁established	-13377
▁partnership	-13378
▁proposition	-13379
▁replacement	-13380
▁Organization	-13381
▁installation	-13382
▁temperatures	-13383
▁improvisation	-13384
ET	-13385
bi	-13386
kh	-13387
arg	-13388
bra	-13389
bro	-13390
cor	-13391
eav	-13392
gia	-13393
lap	-13394
syl	-13395
urf	-13396
ươc	-13397
ệch	-13398
▁00	-13399
▁67	-13400
▁AG	-13401
▁BP	-13402
▁DD	-13403
▁IQ	-13404
▁Ut	-13405
▁Vỗ	-13406
▁ZK	-13407
▁bì	-13408
▁cớ	-13409
▁eB	-13410
▁kg	-13411
▁vã	-13412
▁ắc	-13413
enny	-13414
ergy	-13415
lend	-13416
pris	-13417
ques	-13418
roup	-13419
ulty	-13420
▁12-	-13421
▁Bil	-13422
▁Căn	-13423
▁Cứu	-13424
▁Dor	-13425
▁Git	-13426
▁Hmm	-13427
▁INC	-13428
▁Kep	-13429
▁Kos	-13430
▁Nik	-13431
▁Pic	-13432
▁Row	-13433
▁Shi	-13434
▁Sri	-13435
▁Thị	-13436
▁Thủ	-13437
▁Trí	-13438
▁Voy	-13439
▁Wis	-13440
▁bọt	-13441
▁bời	-13442
▁cằn	-13443
▁daf	-13444
▁doo	-13445
▁gắt	-13446
▁hao	-13447
▁hub	-13448
▁hun	-13449
▁hut	-13450
▁jan	-13451
▁lex	-13452
▁tít	-13453
▁xấp	-13454
aches	-13455
adium	-13456
ambia	-13457
cabul	-13458
chron	-13459
elled	-13460
ensus	-13461
leans	-13462
prise	-13463
ritic	-13464
umara	-13465
vania	-13466
▁Dick	-13467
▁Diet	-13468
▁Evan	-13469
▁Hope	-13470
▁Jake	-13471
▁Joey	-13472
▁Karl	-13473
▁Kate	-13474
▁Kent	-13475
▁Kids	-13476
▁Mười	-13477
▁Shar	-13478
▁Soci	-13479
▁Supp	-13480
▁Tuổi	-13481
▁biod	-13482
▁bond	-13483
▁bowl	-13484
▁chật	-13485
▁chốc	-13486
▁coca	-13487
▁groc	-13488
▁loan	-13489
▁mask	-13490
▁mast	-13491
▁ngạo	-13492
▁phớt	-13493
▁rong	-13494
▁seas	-13495
▁thus	-13496
▁tiệt	-13497
▁vary	-13498
asking	-13499
income	-13500
istory	-13501
itated	-13502
ograms	-13503
olitan	-13504
▁Ahmed	-13505
▁Eight	-13506
▁Maria	-13507
▁Phong	-13508
▁Sleep	-13509
▁Spain	-13510
▁Tarah	-13511
▁Thỉnh	-13512
▁Weibo	-13513
▁ambul	-13514
▁artic	-13515
▁artif	-13516
▁khoác	-13517
▁knife	-13518
▁lifel	-13519
▁loose	-13520
▁roles	-13521
▁screw	-13522
▁thiêu	-13523
▁toast	-13524
▁yeast	-13525
ilation	-13526
▁60,000	-13527
▁Cooper	-13528
▁Kepler	-13529
▁Miller	-13530
▁Spring	-13531
▁Twenty	-13532
▁apples	-13533
▁bother	-13534
▁empath	-13535
▁frames	-13536
▁prepar	-13537
▁rhythm	-13538
▁shifts	-13539
▁stabil	-13540
▁stolen	-13541
▁territ	-13542
▁tribal	-13543
▁valley	-13544
▁winner	-13545
cabulary	-13546
sylvania	-13547
▁Environ	-13548
▁Hopkins	-13549
▁Italian	-13550
▁Orleans	-13551
▁Switzer	-13552
▁belongs	-13553
▁beloved	-13554
▁crossed	-13555
▁elegant	-13556
▁fantasy	-13557
▁follows	-13558
▁glacier	-13559
▁grocery	-13560
▁honesty	-13561
▁origins	-13562
▁passive	-13563
▁strings	-13564
▁trapped	-13565
▁useless	-13566
▁Arkansas	-13567
▁Maryland	-13568
▁Ministry	-13569
▁Nicholas	-13570
▁Pantheon	-13571
▁attribut	-13572
▁autonomy	-13573
▁coverage	-13574
▁entering	-13575
▁exposure	-13576
▁ideology	-13577
▁kindness	-13578
▁overhead	-13579
▁overseas	-13580
▁pleasant	-13581
▁scanning	-13582
▁shepherd	-13583
▁tangible	-13584
▁worrying	-13585
cyclopedia	-13586
ustainable	-13587
▁Biosphere	-13588
▁Sebastian	-13589
▁attitudes	-13590
▁eliminate	-13591
▁filmmaker	-13592
▁jellyfish	-13593
▁occurring	-13594
▁workplace	-13595
▁Mathematic	-13596
▁Tarahumara	-13597
▁confronted	-13598
▁destroying	-13599
▁generosity	-13600
▁infections	-13601
▁narratives	-13602
▁politician	-13603
▁professors	-13604
▁vocabulary	-13605
▁Switzerland	-13606
▁chromosomes	-13607
▁predictable	-13608
▁programmers	-13609
▁realization	-13610
▁Pennsylvania	-13611
▁accomplished	-13612
▁refrigerator	-13613
▁significance	-13614
,7	-13615
ui	-13616
zo	-13617
ún	-13618
▁ừ	-13619
800	-13620
agu	-13621
aro	-13622
atz	-13623
cho	-13624
hea	-13625
ogy	-13626
omi	-13627
ugg	-13628
wan	-13629
weg	-13630
▁94	-13631
▁Cy	-13632
▁Kỹ	-13633
▁Ru	-13634
▁Ur	-13635
▁Vị	-13636
▁Xe	-13637
▁Yo	-13638
▁bỉ	-13639
▁mị	-13640
▁sờ	-13641
▁ts	-13642
▁yo	-13643
▁Ảo	-13644
alin	-13645
asso	-13646
bean	-13647
core	-13648
erto	-13649
icut	-13650
igen	-13651
jevo	-13652
mate	-13653
mind	-13654
orph	-13655
otte	-13656
page	-13657
pres	-13658
stal	-13659
▁Buy	-13660
▁Báo	-13661
▁Cla	-13662
▁Của	-13663
▁Dal	-13664
▁Dig	-13665
▁Joh	-13666
▁Las	-13667
▁Mau	-13668
▁Max	-13669
▁Nỗi	-13670
▁RNA	-13671
▁Trò	-13672
▁Wol	-13673
▁bos	-13674
▁cưa	-13675
▁eco	-13676
▁gạo	-13677
▁gớm	-13678
▁háo	-13679
▁lon	-13680
▁lụa	-13681
▁mìn	-13682
▁pad	-13683
▁rìu	-13684
▁trá	-13685
▁trệ	-13686
▁vel	-13687
▁vùi	-13688
actic	-13689
arten	-13690
vable	-13691
▁1986	-13692
▁2013	-13693
▁Beat	-13694
▁Biết	-13695
▁Chúc	-13696
▁Dịch	-13697
▁Hard	-13698
▁Keep	-13699
▁Lama	-13700
▁Limb	-13701
▁Nghị	-13702
▁Saul	-13703
▁Type	-13704
▁Whoa	-13705
▁ampl	-13706
▁axit	-13707
▁cass	-13708
▁cope	-13709
▁dens	-13710
▁dưng	-13711
▁ghen	-13712
▁gram	-13713
▁mesh	-13714
▁mild	-13715
▁ngọc	-13716
▁nhục	-13717
▁obsc	-13718
▁obso	-13719
▁odor	-13720
▁rent	-13721
▁tuộc	-13722
▁unle	-13723
▁urge	-13724
▁vành	-13725
▁vựng	-13726
▁điếu	-13727
arians	-13728
coming	-13729
ilated	-13730
orough	-13731
vasive	-13732
▁6,000	-13733
▁Intel	-13734
▁Psych	-13735
▁Sioux	-13736
▁Still	-13737
▁Tranh	-13738
▁Video	-13739
▁anten	-13740
▁aspir	-13741
▁consp	-13742
▁couch	-13743
▁depos	-13744
▁fract	-13745
▁giáng	-13746
▁heter	-13747
▁infer	-13748
▁jewel	-13749
▁knees	-13750
▁lever	-13751
▁lists	-13752
▁nhúng	-13753
▁norms	-13754
▁oblig	-13755
▁oxide	-13756
▁panic	-13757
▁parks	-13758
▁paths	-13759
▁phanh	-13760
▁rescu	-13761
▁sched	-13762
▁sheer	-13763
▁shore	-13764
▁shots	-13765
▁tràng	-13766
▁wrest	-13767
▁zones	-13768
creatic	-13769
fulness	-13770
powered	-13771
▁Browne	-13772
▁Carter	-13773
▁Dennis	-13774
▁Norweg	-13775
▁Stefan	-13776
▁Studio	-13777
▁Yellow	-13778
▁accent	-13779
▁apolog	-13780
▁canvas	-13781
▁chains	-13782
▁condom	-13783
▁config	-13784
▁insert	-13785
▁intact	-13786
▁khuếch	-13787
▁manner	-13788
▁mapped	-13789
▁mentor	-13790
▁occurs	-13791
▁pedest	-13792
▁plates	-13793
▁puppet	-13794
▁retail	-13795
▁tables	-13796
▁thrive	-13797
▁unfair	-13798
▁wasted	-13799
anthropy	-13800
▁Anthony	-13801
▁Tunisia	-13802
▁adopted	-13803
▁altered	-13804
▁basking	-13805
▁bridges	-13806
▁cancers	-13807
▁corners	-13808
▁enabled	-13809
▁islands	-13810
▁laptops	-13811
▁octopus	-13812
▁squared	-13813
▁symptom	-13814
▁tension	-13815
▁texture	-13816
▁visions	-13817
▁Cambodia	-13818
▁Cochrane	-13819
▁Egyptian	-13820
▁accuracy	-13821
▁blocking	-13822
▁boundary	-13823
▁branches	-13824
▁diagnost	-13825
▁elevator	-13826
▁embodied	-13827
▁feminist	-13828
▁intended	-13829
▁literacy	-13830
▁managing	-13831
▁manifest	-13832
▁passions	-13833
▁redesign	-13834
▁siblings	-13835
▁smallest	-13836
▁spinning	-13837
▁underest	-13838
▁Telescope	-13839
▁addiction	-13840
▁amazingly	-13841
▁attracted	-13842
▁convicted	-13843
▁dominated	-13844
▁embracing	-13845
▁equations	-13846
▁estimated	-13847
▁integrate	-13848
▁isolation	-13849
▁obsession	-13850
▁reflected	-13851
▁responded	-13852
▁Absolutely	-13853
▁automobile	-13854
▁chromosome	-13855
▁congestion	-13856
▁consistent	-13857
▁metabolism	-13858
▁pancreatic	-13859
▁practicing	-13860
▁procedures	-13861
▁quantities	-13862
▁regenerate	-13863
▁sanitation	-13864
▁Connecticut	-13865
▁calculation	-13866
▁destination	-13867
▁journalists	-13868
▁preparation	-13869
▁regulations	-13870
▁researching	-13871
▁authenticity	-13872
▁measurements	-13873
▁deforestation	-13874
▁philosophical	-13875
▁interpretation	-13876
40	-13877
ko	-13878
và	-13879
ũa	-13880
ẹt	-13881
ợm	-13882
▁Ă	-13883
ape	-13884
bao	-13885
cia	-13886
dad	-13887
iju	-13888
nat	-13889
nov	-13890
▁76	-13891
▁AT	-13892
▁HP	-13893
▁Ow	-13894
▁SB	-13895
▁dy	-13896
▁nộ	-13897
▁tở	-13898
▁ôn	-13899
blog	-13900
colm	-13901
emon	-13902
erer	-13903
etts	-13904
flix	-13905
holm	-13906
iate	-13907
itha	-13908
itty	-13909
mond	-13910
moor	-13911
otto	-13912
rant	-13913
teen	-13914
▁Add	-13915
▁CIA	-13916
▁Cây	-13917
▁Cục	-13918
▁Emp	-13919
▁Leo	-13920
▁Lyn	-13921
▁Naj	-13922
▁Sum	-13923
▁Tar	-13924
▁Try	-13925
▁Tso	-13926
▁Tóm	-13927
▁Tập	-13928
▁Way	-13929
▁củi	-13930
▁ger	-13931
▁hen	-13932
▁lụt	-13933
▁mác	-13934
▁méo	-13935
▁nới	-13936
▁rib	-13937
▁vắt	-13938
▁đặn	-13939
achus	-13940
alend	-13941
arest	-13942
atops	-13943
bling	-13944
front	-13945
inent	-13946
inery	-13947
inity	-13948
itory	-13949
lfare	-13950
mbled	-13951
plete	-13952
▁Andy	-13953
▁Bach	-13954
▁Bono	-13955
▁Brad	-13956
▁Cape	-13957
▁Deep	-13958
▁Emma	-13959
▁Hosp	-13960
▁Marc	-13961
▁Pers	-13962
▁Phục	-13963
▁Pitt	-13964
▁Wang	-13965
▁alph	-13966
▁blur	-13967
▁cage	-13968
▁cành	-13969
▁dare	-13970
▁drew	-13971
▁dẳng	-13972
▁hurd	-13973
▁kiều	-13974
▁láng	-13975
▁nhại	-13976
▁nhọn	-13977
▁nhức	-13978
▁pays	-13979
▁porn	-13980
▁subm	-13981
▁symp	-13982
▁thảy	-13983
▁tụng	-13984
atical	-13985
eaking	-13986
effect	-13987
emical	-13988
estone	-13989
inking	-13990
orient	-13991
orters	-13992
redict	-13993
roduct	-13994
strong	-13995
urning	-13996
▁Bayes	-13997
▁Carib	-13998
▁Dalai	-13999
▁Freud	-14000
▁Glass	-14001
▁Helen	-14002
▁Jason	-14003
▁Jimmy	-14004
▁Johns	-14005
▁Linux	-14006
▁Trang	-14007
▁altru	-14008
▁awake	-14009
▁bless	-14010
▁boats	-14011
▁cable	-14012
▁chinh	-14013
▁chích	-14014
▁comic	-14015
▁ethic	-14016
▁gamma	-14017
▁loyal	-14018
▁pulse	-14019
▁reput	-14020
▁sands	-14021
▁scans	-14022
▁shirt	-14023
▁sizes	-14024
▁sperm	-14025
▁tiger	-14026
▁towel	-14027
▁woods	-14028
inguish	-14029
osexual	-14030
▁Achill	-14031
▁Aurora	-14032
▁Donald	-14033
▁Public	-14034
▁Rezero	-14035
▁Thirty	-14036
▁Wilson	-14037
▁beaten	-14038
▁calend	-14039
▁choàng	-14040
▁cosmic	-14041
▁dating	-14042
▁donors	-14043
▁emails	-14044
▁endeav	-14045
▁enzyme	-14046
▁excess	-14047
▁fisher	-14048
▁fruits	-14049
▁graphs	-14050
▁helmet	-14051
▁lowest	-14052
▁planes	-14053
▁reader	-14054
▁relief	-14055
▁remitt	-14056
▁rolled	-14057
▁thread	-14058
▁underm	-14059
ximately	-14060
▁150,000	-14061
▁500,000	-14062
▁Country	-14063
▁Malcolm	-14064
▁Russell	-14065
▁Society	-14066
▁Voyager	-14067
▁absence	-14068
▁archive	-14069
▁blogger	-14070
▁budgets	-14071
▁charged	-14072
▁counted	-14073
▁dancers	-14074
▁forgive	-14075
▁founder	-14076
▁laughed	-14077
▁longest	-14078
▁museums	-14079
▁powered	-14080
▁priorit	-14081
▁regrets	-14082
▁richest	-14083
▁sensing	-14084
▁seventh	-14085
▁shifted	-14086
▁squares	-14087
▁stadium	-14088
▁streams	-14089
▁teaches	-14090
▁telecom	-14091
▁trivial	-14092
efficient	-14093
▁Sarajevo	-14094
▁Together	-14095
▁altitude	-14096
▁artifact	-14097
▁consumed	-14098
▁explores	-14099
▁famously	-14100
▁magician	-14101
▁membrane	-14102
▁mentally	-14103
▁obsolete	-14104
▁pathways	-14105
▁pipeline	-14106
▁reflects	-14107
▁scaffold	-14108
▁talented	-14109
▁variable	-14110
▁visceral	-14111
▁Amsterdam	-14112
▁Broadmoor	-14113
▁Photoshop	-14114
▁activists	-14115
▁celebrity	-14116
▁comparing	-14117
▁cybercrim	-14118
▁diplomacy	-14119
▁elephants	-14120
▁massively	-14121
▁metabolic	-14122
▁mutations	-14123
▁producers	-14124
▁vegetable	-14125
▁Christians	-14126
▁Parliament	-14127
▁accurately	-14128
▁apartments	-14129
▁commission	-14130
▁exceptions	-14131
▁extinction	-14132
▁friendship	-14133
▁irrational	-14134
▁pheromones	-14135
▁privileged	-14136
▁publishing	-14137
▁Mathematica	-14138
▁astronomers	-14139
▁collaborate	-14140
▁discussions	-14141
▁emotionally	-14142
▁illustrates	-14143
▁stereotypes	-14144
▁biodiversity	-14145
▁observations	-14146
▁perspectives	-14147
▁communicating	-14148
▁discrimination	-14149
▁entrepreneurial	-14150
EF	-14151
EG	-14152
Pr	-14153
da	-14154
õm	-14155
300	-14156
aba	-14157
bow	-14158
lar	-14159
oir	-14160
pur	-14161
▁Bỏ	-14162
▁IK	-14163
▁TH	-14164
▁Uh	-14165
▁Vụ	-14166
▁bự	-14167
▁gy	-14168
▁ol	-14169
atma	-14170
corn	-14171
food	-14172
horn	-14173
iful	-14174
pers	-14175
rost	-14176
umbs	-14177
usty	-14178
▁ESG	-14179
▁Hit	-14180
▁Mao	-14181
▁Nội	-14182
▁Oxy	-14183
▁Sai	-14184
▁Sex	-14185
▁Tạp	-14186
▁amy	-14187
▁cào	-14188
▁fer	-14189
▁geo	-14190
▁hey	-14191
▁kit	-14192
▁kép	-14193
▁nud	-14194
▁nấc	-14195
▁nực	-14196
▁phả	-14197
▁tid	-14198
▁toạ	-14199
▁unw	-14200
▁vỉa	-14201
Qaeda	-14202
berty	-14203
break	-14204
elect	-14205
iance	-14206
icill	-14207
oples	-14208
ouses	-14209
verts	-14210
▁1988	-14211
▁1993	-14212
▁Barb	-14213
▁Best	-14214
▁Chết	-14215
▁Coun	-14216
▁Diễn	-14217
▁Fall	-14218
▁Jews	-14219
▁Juan	-14220
▁Kiva	-14221
▁Luke	-14222
▁Luân	-14223
▁Neur	-14224
▁Nhất	-14225
▁Pale	-14226
▁Phân	-14227
▁Pran	-14228
▁Quần	-14229
▁Sean	-14230
▁Shah	-14231
▁Tuần	-14232
▁Từng	-14233
▁Virt	-14234
▁Wood	-14235
▁bats	-14236
▁bugs	-14237
▁buzz	-14238
▁carp	-14239
▁chop	-14240
▁coat	-14241
▁cows	-14242
▁diễu	-14243
▁edit	-14244
▁exha	-14245
▁flaw	-14246
▁jung	-14247
▁liêu	-14248
▁lười	-14249
▁mold	-14250
▁mông	-14251
▁nhốt	-14252
▁offe	-14253
▁quar	-14254
▁quầy	-14255
▁rank	-14256
▁rode	-14257
▁thối	-14258
▁toll	-14259
▁trap	-14260
▁tsun	-14261
▁unve	-14262
aching	-14263
assive	-14264
erving	-14265
geries	-14266
ijuana	-14267
lining	-14268
ologic	-14269
orship	-14270
resist	-14271
velope	-14272
▁Agnes	-14273
▁Libya	-14274
▁Party	-14275
▁Roman	-14276
▁Scoop	-14277
▁arise	-14278
▁arter	-14279
▁balls	-14280
▁cared	-14281
▁choir	-14282
▁drops	-14283
▁drunk	-14284
▁embry	-14285
▁expon	-14286
▁gross	-14287
▁index	-14288
▁lingu	-14289
▁loses	-14290
▁naive	-14291
▁parag	-14292
▁patch	-14293
▁piles	-14294
▁resur	-14295
▁salad	-14296
▁seats	-14297
▁shops	-14298
▁sương	-14299
▁taxes	-14300
▁tiles	-14301
▁usage	-14302
atories	-14303
itution	-14304
perform	-14305
▁80,000	-14306
▁Except	-14307
▁Monday	-14308
▁Notice	-14309
▁argued	-14310
▁binary	-14311
▁casual	-14312
▁cracks	-14313
▁curves	-14314
▁erotic	-14315
▁estate	-14316
▁exotic	-14317
▁exquis	-14318
▁golden	-14319
▁guitar	-14320
▁hugely	-14321
▁intang	-14322
▁intric	-14323
▁lifted	-14324
▁marrow	-14325
▁masses	-14326
▁mixing	-14327
▁multin	-14328
▁mutual	-14329
▁parach	-14330
▁pestic	-14331
▁purple	-14332
▁regist	-14333
▁sovere	-14334
▁temple	-14335
▁traces	-14336
▁virtue	-14337
▁voters	-14338
function	-14339
olumines	-14340
▁Council	-14341
▁Freeman	-14342
▁Hungary	-14343
▁Mahatma	-14344
▁Netflix	-14345
▁Walmart	-14346
▁anxious	-14347
▁closest	-14348
▁cousins	-14349
▁decides	-14350
▁default	-14351
▁enlight	-14352
▁exagger	-14353
▁farming	-14354
▁inhabit	-14355
▁luckily	-14356
▁mastery	-14357
▁melting	-14358
▁posters	-14359
▁primate	-14360
▁proceed	-14361
▁reforms	-14362
▁relates	-14363
▁romance	-14364
▁screens	-14365
▁swallow	-14366
▁torture	-14367
▁transit	-14368
▁trusted	-14369
▁undergo	-14370
▁welfare	-14371
achusetts	-14372
ographics	-14373
sociation	-14374
▁Building	-14375
▁Security	-14376
▁acquired	-14377
▁cleaning	-14378
▁enjoying	-14379
▁envelope	-14380
▁geometry	-14381
▁hopeless	-14382
▁interior	-14383
▁minority	-14384
▁miracles	-14385
▁mustache	-14386
▁releases	-14387
▁remotely	-14388
▁selected	-14389
▁sexually	-14390
▁sidewalk	-14391
▁terribly	-14392
▁veterans	-14393
▁weakness	-14394
controlled	-14395
ifications	-14396
▁According	-14397
▁Charlotte	-14398
▁Stockholm	-14399
▁ambulance	-14400
▁negotiate	-14401
▁pheromone	-14402
▁platforms	-14403
▁portraits	-14404
▁processed	-14405
▁reasoning	-14406
▁recycling	-14407
▁shoulders	-14408
▁staircase	-14409
▁undergrad	-14410
▁unpredict	-14411
▁visualize	-14412
▁Transition	-14413
▁documented	-14414
▁frightened	-14415
▁girlfriend	-14416
▁inevitably	-14417
▁infectious	-14418
▁millimeter	-14419
▁preventing	-14420
▁terrorists	-14421
▁contributed	-14422
▁controversy	-14423
▁integration	-14424
▁stimulation	-14425
▁concentrated	-14426
▁connectivity	-14427
▁multinational	-14428
▁administration	-14429
,2	-14430
.2	-14431
NG	-14432
OS	-14433
ji	-14434
km	-14435
ww	-14436
▁)	-14437
▁ả	-14438
apm	-14439
cam	-14440
ddy	-14441
din	-14442
dog	-14443
fur	-14444
fus	-14445
hio	-14446
lav	-14447
ovo	-14448
roç	-14449
run	-14450
ỳnh	-14451
▁89	-14452
▁91	-14453
▁JR	-14454
▁KB	-14455
▁Kn	-14456
▁NO	-14457
▁TD	-14458
▁xẻ	-14459
▁ớt	-14460
alie	-14461
amil	-14462
anas	-14463
aque	-14464
ashy	-14465
atan	-14466
eaks	-14467
five	-14468
iflu	-14469
ilot	-14470
inas	-14471
oter	-14472
owan	-14473
rays	-14474
seus	-14475
velt	-14476
▁188	-14477
▁Ara	-14478
▁Arm	-14479
▁Ass	-14480
▁Civ	-14481
▁Dun	-14482
▁Dựa	-14483
▁Hal	-14484
▁Jen	-14485
▁Kab	-14486
▁MBI	-14487
▁Pur	-14488
▁Rub	-14489
▁Sel	-14490
▁Tel	-14491
▁Thư	-14492
▁Tấm	-14493
▁Tới	-14494
▁Viv	-14495
▁Yêu	-14496
▁blu	-14497
▁báu	-14498
▁chà	-14499
▁chổ	-14500
▁cum	-14501
▁cúi	-14502
▁dạn	-14503
▁gán	-14504
▁gót	-14505
▁gầy	-14506
▁gốm	-14507
▁gục	-14508
▁lén	-14509
▁mài	-14510
▁nóc	-14511
▁rùa	-14512
▁ski	-14513
▁thy	-14514
▁von	-14515
▁Đặt	-14516
▁đầm	-14517
ascal	-14518
iated	-14519
idesp	-14520
ighth	-14521
ipcar	-14522
oured	-14523
piece	-14524
rison	-14525
ubble	-14526
udice	-14527
umann	-14528
verly	-14529
▁1985	-14530
▁1991	-14531
▁Buff	-14532
▁Code	-14533
▁Frie	-14534
▁Gapm	-14535
▁Giao	-14536
▁Gill	-14537
▁Huck	-14538
▁Lady	-14539
▁Laur	-14540
▁Mard	-14541
▁Mean	-14542
▁Minh	-14543
▁Mull	-14544
▁Nhận	-14545
▁Niềm	-14546
▁Prob	-14547
▁Thấy	-14548
▁Tinh	-14549
▁USDA	-14550
▁atom	-14551
▁bore	-14552
▁buồm	-14553
▁eats	-14554
▁hook	-14555
▁jack	-14556
▁khoe	-14557
▁kiếp	-14558
▁lúng	-14559
▁merg	-14560
▁nháy	-14561
▁nick	-14562
▁pron	-14563
▁rảnh	-14564
▁shoe	-14565
▁suýt	-14566
▁toes	-14567
▁xuôi	-14568
▁đươc	-14569
▁đắng	-14570
ailand	-14571
ankton	-14572
bercul	-14573
levant	-14574
minded	-14575
stonia	-14576
thirds	-14577
▁7,000	-14578
▁8,000	-14579
▁Const	-14580
▁DARPA	-14581
▁Elvis	-14582
▁Geoff	-14583
▁Grant	-14584
▁INCRA	-14585
▁Jamie	-14586
▁Karen	-14587
▁Lượng	-14588
▁Nhiệm	-14589
▁Osama	-14590
▁Papua	-14591
▁Point	-14592
▁Trắng	-14593
▁alert	-14594
▁chase	-14595
▁chênh	-14596
▁clips	-14597
▁fails	-14598
▁feeds	-14599
▁femin	-14600
▁fence	-14601
▁fungi	-14602
▁haunt	-14603
▁hoped	-14604
▁laund	-14605
▁mater	-14606
▁meets	-14607
▁pants	-14608
▁peers	-14609
▁phiện	-14610
▁regul	-14611
▁rises	-14612
▁risky	-14613
▁slept	-14614
▁stays	-14615
eration	-14616
icillin	-14617
ocative	-14618
umbling	-14619
version	-14620
▁Baxter	-14621
▁Bonnet	-14622
▁Canyon	-14623
▁Garden	-14624
▁Gordon	-14625
▁Inside	-14626
▁Nether	-14627
▁Office	-14628
▁Pascal	-14629
▁System	-14630
▁Tricer	-14631
▁acoust	-14632
▁behalf	-14633
▁brutal	-14634
▁cathed	-14635
▁defeat	-14636
▁depart	-14637
▁famine	-14638
▁folded	-14639
▁grades	-14640
▁orgasm	-14641
▁refuse	-14642
▁scarce	-14643
▁server	-14644
▁stigma	-14645
▁storms	-14646
▁submit	-14647
vascular	-14648
▁Bahamas	-14649
▁Beverly	-14650
▁Heather	-14651
▁Indiana	-14652
▁Natural	-14653
▁Tamiflu	-14654
▁blowing	-14655
▁browser	-14656
▁bureauc	-14657
▁clarity	-14658
▁creator	-14659
▁dismiss	-14660
▁dreamed	-14661
▁earning	-14662
▁eastern	-14663
▁ecology	-14664
▁endless	-14665
▁harmony	-14666
▁landing	-14667
▁leopard	-14668
▁optical	-14669
▁passage	-14670
▁peoples	-14671
▁pouring	-14672
▁recruit	-14673
▁shining	-14674
▁warrior	-14675
▁weekend	-14676
▁winners	-14677
idespread	-14678
wandering	-14679
▁Guardian	-14680
▁Odysseus	-14681
▁Robinson	-14682
▁Thailand	-14683
▁analyzed	-14684
▁assemble	-14685
▁blogging	-14686
▁catching	-14687
▁contempl	-14688
▁deployed	-14689
▁deserves	-14690
▁detected	-14691
▁dropping	-14692
▁explored	-14693
▁headline	-14694
▁innovate	-14695
▁parasite	-14696
▁priority	-14697
▁publicly	-14698
▁synchron	-14699
▁targeted	-14700
▁thinkers	-14701
berculosis	-14702
▁Economist	-14703
▁Gapminder	-14704
▁Himalayas	-14705
▁alongside	-14706
▁cigarette	-14707
▁compounds	-14708
▁delicious	-14709
▁distances	-14710
▁intensity	-14711
▁neocortex	-14712
▁observing	-14713
▁relatives	-14714
▁residents	-14715
▁sensation	-14716
▁surgeries	-14717
▁textbooks	-14718
▁Democratic	-14719
▁accounting	-14720
▁adaptation	-14721
▁anesthesia	-14722
▁antibodies	-14723
▁biolumines	-14724
▁conscience	-14725
▁initiative	-14726
▁opposition	-14727
▁penicillin	-14728
▁projection	-14729
▁sufficient	-14730
▁suspicious	-14731
▁Netherlands	-14732
▁Triceratops	-14733
▁adolescence	-14734
▁expectation	-14735
▁revolutions	-14736
▁demonstrated	-14737
▁introduction	-14738
▁nevertheless	-14739
▁philanthropy	-14740
▁presidential	-14741
▁satisfaction	-14742
▁experimenting	-14743
▁visualization	-14744
,1	-14745
.6	-14746
eu	-14747
êc	-14748
ụn	-14749
Man	-14750
aki	-14751
amy	-14752
awn	-14753
bet	-14754
chi	-14755
ecd	-14756
hot	-14757
hou	-14758
jan	-14759
mes	-14760
oes	-14761
oos	-14762
vít	-14763
ươm	-14764
▁Bí	-14765
▁JK	-14766
▁MM	-14767
▁PA	-14768
▁Tỉ	-14769
▁ao	-14770
▁bệ	-14771
▁om	-14772
▁sộ	-14773
▁tạ	-14774
▁xì	-14775
▁xổ	-14776
arak	-14777
bees	-14778
bell	-14779
bial	-14780
bian	-14781
cano	-14782
drop	-14783
erey	-14784
fare	-14785
held	-14786
hors	-14787
ibri	-14788
ieve	-14789
intu	-14790
offs	-14791
oric	-14792
pack	-14793
phal	-14794
pson	-14795
uced	-14796
▁1.4	-14797
▁Alt	-14798
▁EEG	-14799
▁Guy	-14800
▁Hor	-14801
▁Hẳn	-14802
▁Kin	-14803
▁LHC	-14804
▁Mub	-14805
▁Mức	-14806
▁Pri	-14807
▁Spl	-14808
▁bén	-14809
▁caf	-14810
▁chk	-14811
▁côi	-14812
▁căm	-14813
▁ego	-14814
▁hức	-14815
▁lãi	-14816
▁mit	-14817
▁mud	-14818
▁mỉa	-14819
▁mỉm	-14820
▁oxi	-14821
▁rod	-14822
▁sấu	-14823
▁thỉ	-14824
▁tut	-14825
▁tỉa	-14826
▁tởm	-14827
▁vag	-14828
▁xào	-14829
▁Đào	-14830
▁ươi	-14831
icket	-14832
month	-14833
omics	-14834
ranny	-14835
▁1940	-14836
▁1957	-14837
▁Anne	-14838
▁Berg	-14839
▁Biểu	-14840
▁Cass	-14841
▁Data	-14842
▁Diam	-14843
▁Diff	-14844
▁Fair	-14845
▁Hiển	-14846
▁IKEA	-14847
▁Jere	-14848
▁Jess	-14849
▁Judy	-14850
▁Khối	-14851
▁Lòng	-14852
▁Pass	-14853
▁Pier	-14854
▁Real	-14855
▁Redd	-14856
▁Sadd	-14857
▁Siêu	-14858
▁Troy	-14859
▁Wide	-14860
▁Xanh	-14861
▁alle	-14862
▁bulb	-14863
▁chéo	-14864
▁chảo	-14865
▁conj	-14866
▁cups	-14867
▁dome	-14868
▁fans	-14869
▁giầy	-14870
▁glow	-14871
▁lips	-14872
▁mixt	-14873
▁ngâm	-14874
▁quấn	-14875
▁rays	-14876
▁slip	-14877
▁spat	-14878
▁subt	-14879
▁thản	-14880
▁tide	-14881
▁vice	-14882
▁west	-14883
▁worm	-14884
▁yoga	-14885
▁điểu	-14886
▁đười	-14887
alysis	-14888
ending	-14889
iances	-14890
inable	-14891
ortune	-14892
ourced	-14893
romagn	-14894
shaped	-14895
social	-14896
verted	-14897
ynthia	-14898
▁Bloom	-14899
▁Casey	-14900
▁Civil	-14901
▁Hirsh	-14902
▁Lanka	-14903
▁Naomi	-14904
▁Stein	-14905
▁Wales	-14906
▁alarm	-14907
▁align	-14908
▁alike	-14909
▁anecd	-14910
▁belly	-14911
▁breed	-14912
▁crank	-14913
▁halls	-14914
▁huỳnh	-14915
▁incar	-14916
▁kilos	-14917
▁lobby	-14918
▁myths	-14919
▁ngoặt	-14920
▁picks	-14921
▁postc	-14922
▁radar	-14923
▁scann	-14924
▁sends	-14925
▁swing	-14926
▁trait	-14927
▁votes	-14928
alities	-14929
centure	-14930
conomic	-14931
▁Critic	-14932
▁Hitler	-14933
▁Hunter	-14934
▁Malays	-14935
▁Mellon	-14936
▁Modern	-14937
▁Viking	-14938
▁Wonder	-14939
▁absorb	-14940
▁alumin	-14941
▁bamboo	-14942
▁bloody	-14943
▁branch	-14944
▁bypass	-14945
▁circul	-14946
▁copies	-14947
▁counts	-14948
▁dishes	-14949
▁excuse	-14950
▁export	-14951
▁fluctu	-14952
▁horses	-14953
▁hypoth	-14954
▁lethal	-14955
▁mature	-14956
▁metals	-14957
▁pencil	-14958
▁rubber	-14959
▁salary	-14960
▁scheme	-14961
▁serves	-14962
▁slower	-14963
▁tennis	-14964
breaking	-14965
ifically	-14966
▁Cynthia	-14967
▁Gabriel	-14968
▁Kingdom	-14969
▁Mubarak	-14970
▁Rockett	-14971
▁Swedish	-14972
▁Ukraine	-14973
▁Virtual	-14974
▁captain	-14975
▁charges	-14976
▁chemist	-14977
▁compute	-14978
▁filling	-14979
▁grammar	-14980
▁heating	-14981
▁heavily	-14982
▁iceberg	-14983
▁kidding	-14984
▁lesbian	-14985
▁mankind	-14986
▁matched	-14987
▁neglect	-14988
▁pleased	-14989
▁premise	-14990
▁puberty	-14991
▁refused	-14992
▁shaping	-14993
▁syringe	-14994
▁utterly	-14995
izational	-14996
▁Canadian	-14997
▁Marshall	-14998
▁Monterey	-14999
▁Probably	-15000
▁abundant	-15001
▁announce	-15002
▁assuming	-15003
▁contamin	-15004
▁decrease	-15005
▁disagree	-15006
▁displays	-15007
▁envision	-15008
▁estrogen	-15009
▁intimacy	-15010
▁intimate	-15011
▁inventor	-15012
▁operates	-15013
▁patience	-15014
▁revenues	-15015
▁sections	-15016
▁stressed	-15017
▁Accenture	-15018
▁Caribbean	-15019
▁Democracy	-15020
▁charities	-15021
▁consensus	-15022
▁dictators	-15023
▁emergence	-15024
▁expressed	-15025
▁generates	-15026
▁geography	-15027
▁imagining	-15028
▁machinery	-15029
▁microblog	-15030
▁stressful	-15031
▁territory	-15032
▁witnessed	-15033
▁accelerate	-15034
▁anticipate	-15035
▁approached	-15036
▁attributes	-15037
▁celebrated	-15038
▁developers	-15039
▁discussing	-15040
▁disruptive	-15041
▁networking	-15042
▁priorities	-15043
▁subjective	-15044
▁widespread	-15045
▁Information	-15046
▁calculating	-15047
▁distinction	-15048
▁implemented	-15049
▁statistical	-15050
▁transported	-15051
▁continuously	-15052
▁demonstrates	-15053
▁improvements	-15054
▁philosophers	-15055
▁tuberculosis	-15056
▁Massachusetts	-15057
▁participating	-15058
▁scientifically	-15059
IP	-15060
In	-15061
ơc	-15062
MRI	-15063
azo	-15064
boy	-15065
fig	-15066
gas	-15067
igg	-15068
ipe	-15069
mph	-15070
obe	-15071
oxy	-15072
psy	-15073
uce	-15074
umi	-15075
▁3-	-15076
▁56	-15077
▁59	-15078
▁83	-15079
▁AC	-15080
▁Bồ	-15081
▁Ec	-15082
▁LG	-15083
▁Mở	-15084
▁Oz	-15085
▁cm	-15086
▁tý	-15087
▁Áo	-15088
▁Ăn	-15089
▁đự	-15090
abel	-15091
abin	-15092
amps	-15093
bone	-15094
burn	-15095
char	-15096
eard	-15097
fund	-15098
hift	-15099
ickr	-15100
iser	-15101
isol	-15102
mare	-15103
omed	-15104
tông	-15105
zone	-15106
▁101	-15107
▁401	-15108
▁750	-15109
▁Ath	-15110
▁BBC	-15111
▁Chi	-15112
▁IMF	-15113
▁Jup	-15114
▁Kap	-15115
▁Kas	-15116
▁Khó	-15117
▁Mob	-15118
▁Mắt	-15119
▁Nov	-15120
▁Pav	-15121
▁Sup	-15122
▁Too	-15123
▁Top	-15124
▁Toy	-15125
▁Vis	-15126
▁Wel	-15127
▁Zet	-15128
▁bịt	-15129
▁cob	-15130
▁cày	-15131
▁cửu	-15132
▁exh	-15133
▁mầu	-15134
▁mộc	-15135
▁ngự	-15136
▁pit	-15137
▁pix	-15138
▁rac	-15139
▁rậm	-15140
▁sáp	-15141
▁tòi	-15142
▁vầy	-15143
▁xoa	-15144
▁xáo	-15145
▁xót	-15146
▁xịt	-15147
▁ăng	-15148
▁Đài	-15149
▁Đời	-15150
▁đỗi	-15151
asive	-15152
brush	-15153
eland	-15154
eries	-15155
ocity	-15156
ourse	-15157
owden	-15158
rance	-15159
▁1918	-15160
▁1965	-15161
▁1973	-15162
▁1979	-15163
▁2015	-15164
▁5000	-15165
▁Bare	-15166
▁Barn	-15167
▁Giám	-15168
▁Hack	-15169
▁Head	-15170
▁Java	-15171
▁Khác	-15172
▁Lead	-15173
▁Noah	-15174
▁Pent	-15175
▁Phys	-15176
▁Rain	-15177
▁Robb	-15178
▁Sene	-15179
▁Stat	-15180
▁Stay	-15181
▁Sống	-15182
▁Thầy	-15183
▁beam	-15184
▁beep	-15185
▁blew	-15186
▁bướu	-15187
▁chóp	-15188
▁cúng	-15189
▁cưng	-15190
▁deck	-15191
▁eBay	-15192
▁folk	-15193
▁giục	-15194
▁mant	-15195
▁mánh	-15196
▁nguỵ	-15197
▁nham	-15198
▁pean	-15199
▁perf	-15200
▁pops	-15201
▁quấy	-15202
▁reck	-15203
▁reun	-15204
▁rãnh	-15205
▁rồng	-15206
▁điếc	-15207
boards	-15208
enberg	-15209
oshima	-15210
pshire	-15211
rowing	-15212
sburgh	-15213
▁Actor	-15214
▁Danny	-15215
▁Death	-15216
▁Ellen	-15217
▁Gayla	-15218
▁Heart	-15219
▁Molly	-15220
▁Phill	-15221
▁Riley	-15222
▁Roose	-15223
▁Royal	-15224
▁Rufus	-15225
▁Triều	-15226
▁Truth	-15227
▁Vinci	-15228
▁catad	-15229
▁decor	-15230
▁drama	-15231
▁fetus	-15232
▁folds	-15233
▁freak	-15234
▁handy	-15235
▁maneu	-15236
▁merit	-15237
▁numer	-15238
▁penet	-15239
▁poems	-15240
▁probe	-15241
▁rigid	-15242
▁ruins	-15243
▁slope	-15244
▁spong	-15245
▁strip	-15246
▁trips	-15247
▁valve	-15248
▁virut	-15249
▁wives	-15250
massive	-15251
ocation	-15252
ounding	-15253
quality	-15254
▁Bilbao	-15255
▁Empire	-15256
▁Evelyn	-15257
▁Flickr	-15258
▁Illino	-15259
▁Kenyan	-15260
▁Korean	-15261
▁Kosovo	-15262
▁Nicole	-15263
▁Others	-15264
▁Sergey	-15265
▁Toyota	-15266
▁addict	-15267
▁banned	-15268
▁beside	-15269
▁chimps	-15270
▁clitor	-15271
▁cockro	-15272
▁coding	-15273
▁diving	-15274
▁elabor	-15275
▁equity	-15276
▁evapor	-15277
▁fibers	-15278
▁filmed	-15279
▁guards	-15280
▁injust	-15281
▁ladder	-15282
▁legend	-15283
▁losses	-15284
▁oyster	-15285
▁presum	-15286
▁proved	-15287
▁steady	-15288
▁strand	-15289
▁tastes	-15290
▁timing	-15291
▁trauma	-15292
assembly	-15293
conflict	-15294
lessness	-15295
▁100.000	-15296
▁400,000	-15297
▁Brother	-15298
▁History	-15299
▁Indians	-15300
▁Jupiter	-15301
▁Machine	-15302
▁Picasso	-15303
▁anatomy	-15304
▁antenna	-15305
▁ashamed	-15306
▁buttons	-15307
▁cardiac	-15308
▁chamber	-15309
▁chronic	-15310
▁cocaine	-15311
▁digging	-15312
▁divorce	-15313
▁exploit	-15314
▁goodbye	-15315
▁greatly	-15316
▁matches	-15317
▁novelty	-15318
▁nucleus	-15319
▁princip	-15320
▁returns	-15321
▁shelves	-15322
▁strikes	-15323
▁tickets	-15324
▁tsunami	-15325
▁western	-15326
▁wonders	-15327
conscious	-15328
forcement	-15329
▁Buddhist	-15330
▁Friedman	-15331
▁Hospital	-15332
▁Interest	-15333
▁Malaysia	-15334
▁Medicine	-15335
▁adaptive	-15336
▁advocate	-15337
▁asteroid	-15338
▁checking	-15339
▁cortisol	-15340
▁expanded	-15341
▁fairness	-15342
▁gestures	-15343
▁informal	-15344
▁minerals	-15345
▁misunder	-15346
▁motivate	-15347
▁multiply	-15348
▁notebook	-15349
▁operated	-15350
▁promised	-15351
▁prospect	-15352
▁protocol	-15353
▁regional	-15354
▁revealed	-15355
▁stealing	-15356
▁suppress	-15357
▁thorough	-15358
▁tropical	-15359
▁youngest	-15360
▁Education	-15361
▁Hampshire	-15362
▁Hiroshima	-15363
▁Meanwhile	-15364
▁Roosevelt	-15365
▁Similarly	-15366
▁Therefore	-15367
▁achieving	-15368
▁champions	-15369
▁countless	-15370
▁discussed	-15371
▁educating	-15372
▁epidemics	-15373
▁exercises	-15374
▁integrity	-15375
▁nightmare	-15376
▁parachute	-15377
▁precision	-15378
▁processor	-15379
▁renewable	-15380
▁screaming	-15381
▁screening	-15382
▁secondary	-15383
▁strengths	-15384
▁Pittsburgh	-15385
▁acceptance	-15386
▁addressing	-15387
▁beneficial	-15388
▁conceptual	-15389
▁contagious	-15390
▁continents	-15391
▁critically	-15392
▁describing	-15393
▁employment	-15394
▁enterprise	-15395
▁horizontal	-15396
[...]
